#ifndef MODEL_C_H
#define MODEL_C_H

unsigned char c_model_tflite[] = {
  0x1c, 0x00, 0x00, 0x00, 0x54, 0x46, 0x4c, 0x33, 0x14, 0x00, 0x20, 0x00,
  0x1c, 0x00, 0x18, 0x00, 0x14, 0x00, 0x10, 0x00, 0x0c, 0x00, 0x00, 0x00,
  0x08, 0x00, 0x04, 0x00, 0x14, 0x00, 0x00, 0x00, 0x1c, 0x00, 0x00, 0x00,
  0x80, 0x00, 0x00, 0x00, 0xd8, 0x00, 0x00, 0x00, 0x1c, 0x44, 0x00, 0x00,
  0x2c, 0x44, 0x00, 0x00, 0x5c, 0x4a, 0x00, 0x00, 0x03, 0x00, 0x00, 0x00,
  0x01, 0x00, 0x00, 0x00, 0x04, 0x00, 0x00, 0x00, 0x1e, 0xbb, 0xff, 0xff,
  0x0c, 0x00, 0x00, 0x00, 0x1c, 0x00, 0x00, 0x00, 0x38, 0x00, 0x00, 0x00,
  0x0f, 0x00, 0x00, 0x00, 0x73, 0x65, 0x72, 0x76, 0x69, 0x6e, 0x67, 0x5f,
  0x64, 0x65, 0x66, 0x61, 0x75, 0x6c, 0x74, 0x00, 0x01, 0x00, 0x00, 0x00,
  0x04, 0x00, 0x00, 0x00, 0x9c, 0xff, 0xff, 0xff, 0x0a, 0x00, 0x00, 0x00,
  0x04, 0x00, 0x00, 0x00, 0x07, 0x00, 0x00, 0x00, 0x64, 0x65, 0x6e, 0x73,
  0x65, 0x5f, 0x31, 0x00, 0x01, 0x00, 0x00, 0x00, 0x04, 0x00, 0x00, 0x00,
  0x66, 0xbc, 0xff, 0xff, 0x04, 0x00, 0x00, 0x00, 0x07, 0x00, 0x00, 0x00,
  0x69, 0x6e, 0x70, 0x75, 0x74, 0x5f, 0x31, 0x00, 0x02, 0x00, 0x00, 0x00,
  0x34, 0x00, 0x00, 0x00, 0x04, 0x00, 0x00, 0x00, 0xdc, 0xff, 0xff, 0xff,
  0x0d, 0x00, 0x00, 0x00, 0x04, 0x00, 0x00, 0x00, 0x13, 0x00, 0x00, 0x00,
  0x43, 0x4f, 0x4e, 0x56, 0x45, 0x52, 0x53, 0x49, 0x4f, 0x4e, 0x5f, 0x4d,
  0x45, 0x54, 0x41, 0x44, 0x41, 0x54, 0x41, 0x00, 0x08, 0x00, 0x0c, 0x00,
  0x08, 0x00, 0x04, 0x00, 0x08, 0x00, 0x00, 0x00, 0x0c, 0x00, 0x00, 0x00,
  0x04, 0x00, 0x00, 0x00, 0x13, 0x00, 0x00, 0x00, 0x6d, 0x69, 0x6e, 0x5f,
  0x72, 0x75, 0x6e, 0x74, 0x69, 0x6d, 0x65, 0x5f, 0x76, 0x65, 0x72, 0x73,
  0x69, 0x6f, 0x6e, 0x00, 0x0e, 0x00, 0x00, 0x00, 0x40, 0x43, 0x00, 0x00,
  0x38, 0x43, 0x00, 0x00, 0x24, 0x43, 0x00, 0x00, 0x04, 0x43, 0x00, 0x00,
  0xd0, 0x42, 0x00, 0x00, 0xb8, 0x42, 0x00, 0x00, 0x08, 0x01, 0x00, 0x00,
  0xa8, 0x00, 0x00, 0x00, 0xa0, 0x00, 0x00, 0x00, 0x98, 0x00, 0x00, 0x00,
  0x90, 0x00, 0x00, 0x00, 0x88, 0x00, 0x00, 0x00, 0x68, 0x00, 0x00, 0x00,
  0x04, 0x00, 0x00, 0x00, 0x12, 0xbd, 0xff, 0xff, 0x04, 0x00, 0x00, 0x00,
  0x54, 0x00, 0x00, 0x00, 0x0c, 0x00, 0x00, 0x00, 0x08, 0x00, 0x0e, 0x00,
  0x08, 0x00, 0x04, 0x00, 0x08, 0x00, 0x00, 0x00, 0x10, 0x00, 0x00, 0x00,
  0x24, 0x00, 0x00, 0x00, 0x00, 0x00, 0x06, 0x00, 0x08, 0x00, 0x04, 0x00,
  0x06, 0x00, 0x00, 0x00, 0x04, 0x00, 0x00, 0x00, 0x00, 0x00, 0x00, 0x00,
  0x00, 0x00, 0x0a, 0x00, 0x10, 0x00, 0x0c, 0x00, 0x08, 0x00, 0x04, 0x00,
  0x0a, 0x00, 0x00, 0x00, 0x02, 0x00, 0x00, 0x00, 0x02, 0x00, 0x00, 0x00,
  0x04, 0x00, 0x00, 0x00, 0x06, 0x00, 0x00, 0x00, 0x32, 0x2e, 0x31, 0x31,
  0x2e, 0x31, 0x00, 0x00, 0x72, 0xbd, 0xff, 0xff, 0x04, 0x00, 0x00, 0x00,
  0x10, 0x00, 0x00, 0x00, 0x31, 0x2e, 0x35, 0x2e, 0x30, 0x00, 0x00, 0x00,
  0x00, 0x00, 0x00, 0x00, 0x00, 0x00, 0x00, 0x00, 0x64, 0xb7, 0xff, 0xff,
  0x68, 0xb7, 0xff, 0xff, 0x6c, 0xb7, 0xff, 0xff, 0x70, 0xb7, 0xff, 0xff,
  0x9e, 0xbd, 0xff, 0xff, 0x04, 0x00, 0x00, 0x00, 0x50, 0x00, 0x00, 0x00,
  0xa9, 0x70, 0x32, 0xbf, 0x37, 0x59, 0x10, 0xbd, 0x37, 0x59, 0x10, 0xbd,
  0xd7, 0xe3, 0x19, 0x3f, 0xd7, 0xe3, 0x19, 0x3f, 0x37, 0x59, 0x10, 0xbd,
  0x37, 0x59, 0x10, 0xbd, 0xa9, 0x70, 0x32, 0xbf, 0x37, 0x59, 0x10, 0xbd,
  0xa9, 0x70, 0x32, 0xbf, 0x37, 0x59, 0x10, 0xbd, 0xa9, 0x70, 0x32, 0xbf,
  0xd7, 0xe3, 0x19, 0x3f, 0x37, 0x59, 0x10, 0xbd, 0xa9, 0x70, 0x32, 0xbf,
  0x37, 0x59, 0x10, 0xbd, 0x37, 0x59, 0x10, 0xbd, 0x37, 0x59, 0x10, 0xbd,
  0xd7, 0xe3, 0x19, 0x3f, 0xd7, 0xe3, 0x19, 0x3f, 0xfa, 0xbd, 0xff, 0xff,
  0x04, 0x00, 0x00, 0x00, 0xa0, 0x41, 0x00, 0x00, 0xb4, 0x79, 0x77, 0x3c,
  0xb4, 0x79, 0x77, 0x3c, 0xb4, 0x79, 0x77, 0x3c, 0xb4, 0x79, 0x77, 0x3c,
  0xb4, 0x79, 0x77, 0x3c, 0xb4, 0x79, 0x77, 0x3c, 0xb4, 0x79, 0x77, 0x3c,
  0xb4, 0x79, 0x77, 0x3c, 0xb4, 0x79, 0x77, 0x3c, 0xb4, 0x79, 0x77, 0x3c,
  0xb4, 0x79, 0x77, 0x3c, 0xb4, 0x79, 0x77, 0x3c, 0xb4, 0x79, 0x77, 0x3c,
  0xb4, 0x79, 0x77, 0x3c, 0xb4, 0x79, 0x77, 0x3c, 0xb4, 0x79, 0x77, 0x3c,
  0xb4, 0x79, 0x77, 0x3c, 0xb4, 0x79, 0x77, 0x3c, 0xb4, 0x79, 0x77, 0x3c,
  0xb4, 0x79, 0x77, 0x3c, 0xb4, 0x79, 0x77, 0x3c, 0xb4, 0x79, 0x77, 0x3c,
  0xb4, 0x79, 0x77, 0x3c, 0xb4, 0x79, 0x77, 0x3c, 0xb4, 0x79, 0x77, 0x3c,
  0xb4, 0x79, 0x77, 0x3c, 0xb4, 0x79, 0x77, 0x3c, 0xb4, 0x79, 0x77, 0x3c,
  0xb4, 0x79, 0x77, 0x3c, 0xb4, 0x79, 0x77, 0x3c, 0xb4, 0x79, 0x77, 0x3c,
  0xb4, 0x79, 0x77, 0x3c, 0xb4, 0x79, 0x77, 0x3c, 0xb4, 0x79, 0x77, 0x3c,
  0xb4, 0x79, 0x77, 0x3c, 0xb4, 0x79, 0x77, 0x3c, 0xb4, 0x79, 0x77, 0x3c,
  0xb4, 0x79, 0x77, 0x3c, 0xb4, 0x79, 0x77, 0x3c, 0xb4, 0x79, 0x77, 0x3c,
  0xb4, 0x79, 0x77, 0x3c, 0x30, 0x35, 0x82, 0x3e, 0xb4, 0x79, 0x77, 0x3c,
  0xb4, 0x79, 0x77, 0x3c, 0xb4, 0x79, 0x77, 0x3c, 0xb4, 0x79, 0x77, 0x3c,
  0xb4, 0x79, 0x77, 0x3c, 0xb4, 0x79, 0x77, 0x3c, 0xb4, 0x79, 0x77, 0x3c,
  0xb4, 0x79, 0x77, 0x3c, 0xb4, 0x79, 0x77, 0x3c, 0x30, 0x35, 0x82, 0x3e,
  0xb4, 0x79, 0x77, 0x3c, 0xb4, 0x79, 0x77, 0x3c, 0xb4, 0x79, 0x77, 0x3c,
  0xb4, 0x79, 0x77, 0x3c, 0xb4, 0x79, 0x77, 0x3c, 0xb4, 0x79, 0x77, 0x3c,
  0xb4, 0x79, 0x77, 0x3c, 0xb4, 0x79, 0x77, 0x3c, 0xb4, 0x79, 0x77, 0x3c,
  0xb4, 0x79, 0x77, 0x3c, 0xb4, 0x79, 0x77, 0x3c, 0xb4, 0x79, 0x77, 0x3c,
  0xb4, 0x79, 0x77, 0x3c, 0xb4, 0x79, 0x77, 0x3c, 0xb4, 0x79, 0x77, 0x3c,
  0xb4, 0x79, 0x77, 0x3c, 0xb4, 0x79, 0x77, 0x3c, 0x30, 0x35, 0x82, 0x3e,
  0xb4, 0x79, 0x77, 0x3c, 0xb4, 0x79, 0x77, 0x3c, 0xb4, 0x79, 0x77, 0x3c,
  0xb4, 0x79, 0x77, 0x3c, 0xb4, 0x79, 0x77, 0x3c, 0xb4, 0x79, 0x77, 0x3c,
  0xb4, 0x79, 0x77, 0x3c, 0xb4, 0x79, 0x77, 0x3c, 0xb4, 0x79, 0x77, 0x3c,
  0xb4, 0x79, 0x77, 0x3c, 0xb4, 0x79, 0x77, 0x3c, 0xb4, 0x79, 0x77, 0x3c,
  0xb4, 0x79, 0x77, 0x3c, 0xb4, 0x79, 0x77, 0x3c, 0xb4, 0x79, 0x77, 0x3c,
  0xb4, 0x79, 0x77, 0x3c, 0xb4, 0x79, 0x77, 0x3c, 0xb4, 0x79, 0x77, 0x3c,
  0xb4, 0x79, 0x77, 0x3c, 0xb4, 0x79, 0x77, 0x3c, 0xb4, 0x79, 0x77, 0x3c,
  0xb4, 0x79, 0x77, 0x3c, 0xb4, 0x79, 0x77, 0x3c, 0xb4, 0x79, 0x77, 0x3c,
  0xb4, 0x79, 0x77, 0x3c, 0xb4, 0x79, 0x77, 0x3c, 0xb4, 0x79, 0x77, 0x3c,
  0xb4, 0x79, 0x77, 0x3c, 0xb4, 0x79, 0x77, 0x3c, 0xb4, 0x79, 0x77, 0x3c,
  0xb4, 0x79, 0x77, 0x3c, 0xb4, 0x79, 0x77, 0x3c, 0xb4, 0x79, 0x77, 0x3c,
  0xb4, 0x79, 0x77, 0x3c, 0xb4, 0x79, 0x77, 0x3c, 0xb4, 0x79, 0x77, 0x3c,
  0xb4, 0x79, 0x77, 0x3c, 0xb4, 0x79, 0x77, 0x3c, 0xb4, 0x79, 0x77, 0x3c,
  0xb4, 0x79, 0x77, 0x3c, 0xb4, 0x79, 0x77, 0x3c, 0xb4, 0x79, 0x77, 0x3c,
  0xb4, 0x79, 0x77, 0x3c, 0xb4, 0x79, 0x77, 0x3c, 0xb4, 0x79, 0x77, 0x3c,
  0x30, 0x35, 0x82, 0x3e, 0xb4, 0x79, 0x77, 0x3c, 0xb4, 0x79, 0x77, 0x3c,
  0xb4, 0x79, 0x77, 0x3c, 0xb4, 0x79, 0x77, 0x3c, 0xb4, 0x79, 0x77, 0x3c,
  0xb4, 0x79, 0x77, 0x3c, 0xb4, 0x79, 0x77, 0x3c, 0xb4, 0x79, 0x77, 0x3c,
  0xb4, 0x79, 0x77, 0x3c, 0xb4, 0x79, 0x77, 0x3c, 0x30, 0x35, 0x82, 0x3e,
  0xb4, 0x79, 0x77, 0x3c, 0xb4, 0x79, 0x77, 0x3c, 0xb4, 0x79, 0x77, 0x3c,
  0xb4, 0x79, 0x77, 0x3c, 0xb4, 0x79, 0x77, 0x3c, 0xb4, 0x79, 0x77, 0x3c,
  0xb4, 0x79, 0x77, 0x3c, 0xb4, 0x79, 0x77, 0x3c, 0xb4, 0x79, 0x77, 0x3c,
  0xb4, 0x79, 0x77, 0x3c, 0xb4, 0x79, 0x77, 0x3c, 0xb4, 0x79, 0x77, 0x3c,
  0xb4, 0x79, 0x77, 0x3c, 0xb4, 0x79, 0x77, 0x3c, 0xb4, 0x79, 0x77, 0x3c,
  0x30, 0x35, 0x82, 0x3e, 0xb4, 0x79, 0x77, 0x3c, 0xb4, 0x79, 0x77, 0x3c,
  0xb4, 0x79, 0x77, 0x3c, 0xb4, 0x79, 0x77, 0x3c, 0xb4, 0x79, 0x77, 0x3c,
  0xb4, 0x79, 0x77, 0x3c, 0xb4, 0x79, 0x77, 0x3c, 0xb4, 0x79, 0x77, 0x3c,
  0xb4, 0x79, 0x77, 0x3c, 0xb4, 0x79, 0x77, 0x3c, 0xb4, 0x79, 0x77, 0x3c,
  0xb4, 0x79, 0x77, 0x3c, 0xb4, 0x79, 0x77, 0x3c, 0xb4, 0x79, 0x77, 0x3c,
  0xb4, 0x79, 0x77, 0x3c, 0xb4, 0x79, 0x77, 0x3c, 0xb4, 0x79, 0x77, 0x3c,
  0xb4, 0x79, 0x77, 0x3c, 0xb4, 0x79, 0x77, 0x3c, 0xb4, 0x79, 0x77, 0x3c,
  0xb4, 0x79, 0x77, 0x3c, 0xb4, 0x79, 0x77, 0x3c, 0xb4, 0x79, 0x77, 0x3c,
  0xb4, 0x79, 0x77, 0x3c, 0xb4, 0x79, 0x77, 0x3c, 0xb4, 0x79, 0x77, 0x3c,
  0xb4, 0x79, 0x77, 0x3c, 0xb4, 0x79, 0x77, 0x3c, 0xb4, 0x79, 0x77, 0x3c,
  0xb4, 0x79, 0x77, 0x3c, 0xb4, 0x79, 0x77, 0x3c, 0xb4, 0x79, 0x77, 0x3c,
  0xb4, 0x79, 0x77, 0x3c, 0xb4, 0x79, 0x77, 0x3c, 0xb4, 0x79, 0x77, 0x3c,
  0xb4, 0x79, 0x77, 0x3c, 0xb4, 0x79, 0x77, 0x3c, 0xb4, 0x79, 0x77, 0x3c,
  0xb4, 0x79, 0x77, 0x3c, 0xb4, 0x79, 0x77, 0x3c, 0xb4, 0x79, 0x77, 0x3c,
  0xb4, 0x79, 0x77, 0x3c, 0xb4, 0x79, 0x77, 0x3c, 0xb4, 0x79, 0x77, 0x3c,
  0xb4, 0x79, 0x77, 0x3c, 0xb4, 0x79, 0x77, 0x3c, 0xb4, 0x79, 0x77, 0x3c,
  0xb4, 0x79, 0x77, 0x3c, 0xb4, 0x79, 0x77, 0x3c, 0xb4, 0x79, 0x77, 0x3c,
  0xb4, 0x79, 0x77, 0x3c, 0xb4, 0x79, 0x77, 0x3c, 0xb4, 0x79, 0x77, 0x3c,
  0xb4, 0x79, 0x77, 0x3c, 0xb4, 0x79, 0x77, 0x3c, 0xb4, 0x79, 0x77, 0x3c,
  0x0d, 0xcf, 0x63, 0xbe, 0xb4, 0x79, 0x77, 0x3c, 0xb4, 0x79, 0x77, 0x3c,
  0xb4, 0x79, 0x77, 0x3c, 0xb4, 0x79, 0x77, 0x3c, 0xb4, 0x79, 0x77, 0x3c,
  0xb4, 0x79, 0x77, 0x3c, 0xb4, 0x79, 0x77, 0x3c, 0xb4, 0x79, 0x77, 0x3c,
  0xb4, 0x79, 0x77, 0x3c, 0xb4, 0x79, 0x77, 0x3c, 0xb4, 0x79, 0x77, 0x3c,
  0xb4, 0x79, 0x77, 0x3c, 0xb4, 0x79, 0x77, 0x3c, 0xb4, 0x79, 0x77, 0x3c,
  0xb4, 0x79, 0x77, 0x3c, 0xb4, 0x79, 0x77, 0x3c, 0xb4, 0x79, 0x77, 0x3c,
  0xb4, 0x79, 0x77, 0x3c, 0xb4, 0x79, 0x77, 0x3c, 0x0d, 0xcf, 0x63, 0xbe,
  0xb4, 0x79, 0x77, 0x3c, 0xb4, 0x79, 0x77, 0x3c, 0xb4, 0x79, 0x77, 0x3c,
  0xb4, 0x79, 0x77, 0x3c, 0xb4, 0x79, 0x77, 0x3c, 0xb4, 0x79, 0x77, 0x3c,
  0xb4, 0x79, 0x77, 0x3c, 0x0d, 0xcf, 0x63, 0xbe, 0xb4, 0x79, 0x77, 0x3c,
  0xb4, 0x79, 0x77, 0x3c, 0x0d, 0xcf, 0x63, 0xbe, 0xb4, 0x79, 0x77, 0x3c,
  0xb4, 0x79, 0x77, 0x3c, 0xb4, 0x79, 0x77, 0x3c, 0xb4, 0x79, 0x77, 0x3c,
  0xb4, 0x79, 0x77, 0x3c, 0xb4, 0x79, 0x77, 0x3c, 0xb4, 0x79, 0x77, 0x3c,
  0xb4, 0x79, 0x77, 0x3c, 0xb4, 0x79, 0x77, 0x3c, 0xb4, 0x79, 0x77, 0x3c,
  0xb4, 0x79, 0x77, 0x3c, 0xb4, 0x79, 0x77, 0x3c, 0xb4, 0x79, 0x77, 0x3c,
  0xb4, 0x79, 0x77, 0x3c, 0xb4, 0x79, 0x77, 0x3c, 0xb4, 0x79, 0x77, 0x3c,
  0xb4, 0x79, 0x77, 0x3c, 0xb4, 0x79, 0x77, 0x3c, 0xb4, 0x79, 0x77, 0x3c,
  0xb4, 0x79, 0x77, 0x3c, 0xb4, 0x79, 0x77, 0x3c, 0xb4, 0x79, 0x77, 0x3c,
  0xb4, 0x79, 0x77, 0x3c, 0xb4, 0x79, 0x77, 0x3c, 0xb4, 0x79, 0x77, 0x3c,
  0xb4, 0x79, 0x77, 0x3c, 0xb4, 0x79, 0x77, 0x3c, 0xb4, 0x79, 0x77, 0x3c,
  0xb4, 0x79, 0x77, 0x3c, 0x0d, 0xcf, 0x63, 0xbe, 0xb4, 0x79, 0x77, 0x3c,
  0xb4, 0x79, 0x77, 0x3c, 0xb4, 0x79, 0x77, 0x3c, 0xb4, 0x79, 0x77, 0x3c,
  0xb4, 0x79, 0x77, 0x3c, 0xb4, 0x79, 0x77, 0x3c, 0xb4, 0x79, 0x77, 0x3c,
  0xb4, 0x79, 0x77, 0x3c, 0xb4, 0x79, 0x77, 0x3c, 0xb4, 0x79, 0x77, 0x3c,
  0xb4, 0x79, 0x77, 0x3c, 0xb4, 0x79, 0x77, 0x3c, 0xb4, 0x79, 0x77, 0x3c,
  0xb4, 0x79, 0x77, 0x3c, 0x30, 0x35, 0x82, 0x3e, 0xb4, 0x79, 0x77, 0x3c,
  0xb4, 0x79, 0x77, 0x3c, 0xb4, 0x79, 0x77, 0x3c, 0xb4, 0x79, 0x77, 0x3c,
  0xb4, 0x79, 0x77, 0x3c, 0xb4, 0x79, 0x77, 0x3c, 0x30, 0x35, 0x82, 0x3e,
  0xb4, 0x79, 0x77, 0x3c, 0xb4, 0x79, 0x77, 0x3c, 0xb4, 0x79, 0x77, 0x3c,
  0xb4, 0x79, 0x77, 0x3c, 0xb4, 0x79, 0x77, 0x3c, 0xb4, 0x79, 0x77, 0x3c,
  0xb4, 0x79, 0x77, 0x3c, 0x30, 0x35, 0x82, 0x3e, 0xb4, 0x79, 0x77, 0x3c,
  0xb4, 0x79, 0x77, 0x3c, 0xb4, 0x79, 0x77, 0x3c, 0xb4, 0x79, 0x77, 0x3c,
  0xb4, 0x79, 0x77, 0x3c, 0xb4, 0x79, 0x77, 0x3c, 0xb4, 0x79, 0x77, 0x3c,
  0xb4, 0x79, 0x77, 0x3c, 0xb4, 0x79, 0x77, 0x3c, 0xb4, 0x79, 0x77, 0x3c,
  0xb4, 0x79, 0x77, 0x3c, 0xb4, 0x79, 0x77, 0x3c, 0xb4, 0x79, 0x77, 0x3c,
  0xb4, 0x79, 0x77, 0x3c, 0xb4, 0x79, 0x77, 0x3c, 0xb4, 0x79, 0x77, 0x3c,
  0xb4, 0x79, 0x77, 0x3c, 0xb4, 0x79, 0x77, 0x3c, 0xb4, 0x79, 0x77, 0x3c,
  0xb4, 0x79, 0x77, 0x3c, 0xb4, 0x79, 0x77, 0x3c, 0xb4, 0x79, 0x77, 0x3c,
  0xb4, 0x79, 0x77, 0x3c, 0xb4, 0x79, 0x77, 0x3c, 0xb4, 0x79, 0x77, 0x3c,
  0xb4, 0x79, 0x77, 0x3c, 0xb4, 0x79, 0x77, 0x3c, 0xb4, 0x79, 0x77, 0x3c,
  0xb4, 0x79, 0x77, 0x3c, 0xb4, 0x79, 0x77, 0x3c, 0xb4, 0x79, 0x77, 0x3c,
  0xb4, 0x79, 0x77, 0x3c, 0xb4, 0x79, 0x77, 0x3c, 0xb4, 0x79, 0x77, 0x3c,
  0xb4, 0x79, 0x77, 0x3c, 0xb4, 0x79, 0x77, 0x3c, 0xb4, 0x79, 0x77, 0x3c,
  0xb4, 0x79, 0x77, 0x3c, 0xb4, 0x79, 0x77, 0x3c, 0xb4, 0x79, 0x77, 0x3c,
  0xb4, 0x79, 0x77, 0x3c, 0xb4, 0x79, 0x77, 0x3c, 0xb4, 0x79, 0x77, 0x3c,
  0xb4, 0x79, 0x77, 0x3c, 0xb4, 0x79, 0x77, 0x3c, 0xb4, 0x79, 0x77, 0x3c,
  0xb4, 0x79, 0x77, 0x3c, 0xb4, 0x79, 0x77, 0x3c, 0xb4, 0x79, 0x77, 0x3c,
  0xb4, 0x79, 0x77, 0x3c, 0xb4, 0x79, 0x77, 0x3c, 0xb4, 0x79, 0x77, 0x3c,
  0xb4, 0x79, 0x77, 0x3c, 0xb4, 0x79, 0x77, 0x3c, 0xb4, 0x79, 0x77, 0x3c,
  0xb4, 0x79, 0x77, 0x3c, 0xb4, 0x79, 0x77, 0x3c, 0xb4, 0x79, 0x77, 0x3c,
  0xb4, 0x79, 0x77, 0x3c, 0xb4, 0x79, 0x77, 0x3c, 0xb4, 0x79, 0x77, 0x3c,
  0xb4, 0x79, 0x77, 0x3c, 0xb4, 0x79, 0x77, 0x3c, 0xb4, 0x79, 0x77, 0x3c,
  0xb4, 0x79, 0x77, 0x3c, 0xb4, 0x79, 0x77, 0x3c, 0xb4, 0x79, 0x77, 0x3c,
  0xb4, 0x79, 0x77, 0x3c, 0xb4, 0x79, 0x77, 0x3c, 0xb4, 0x79, 0x77, 0x3c,
  0xb4, 0x79, 0x77, 0x3c, 0xb4, 0x79, 0x77, 0x3c, 0xb4, 0x79, 0x77, 0x3c,
  0xb4, 0x79, 0x77, 0x3c, 0xb4, 0x79, 0x77, 0x3c, 0xb4, 0x79, 0x77, 0x3c,
  0xb4, 0x79, 0x77, 0x3c, 0xb4, 0x79, 0x77, 0x3c, 0xb4, 0x79, 0x77, 0x3c,
  0xb4, 0x79, 0x77, 0x3c, 0xb4, 0x79, 0x77, 0x3c, 0xb4, 0x79, 0x77, 0x3c,
  0xb4, 0x79, 0x77, 0x3c, 0xb4, 0x79, 0x77, 0x3c, 0xb4, 0x79, 0x77, 0x3c,
  0xb4, 0x79, 0x77, 0x3c, 0xb4, 0x79, 0x77, 0x3c, 0xb4, 0x79, 0x77, 0x3c,
  0xb4, 0x79, 0x77, 0x3c, 0xb4, 0x79, 0x77, 0x3c, 0xb4, 0x79, 0x77, 0x3c,
  0xb4, 0x79, 0x77, 0x3c, 0xb4, 0x79, 0x77, 0x3c, 0xb4, 0x79, 0x77, 0x3c,
  0xb4, 0x79, 0x77, 0x3c, 0xb4, 0x79, 0x77, 0x3c, 0xb4, 0x79, 0x77, 0x3c,
  0xb4, 0x79, 0x77, 0x3c, 0xb4, 0x79, 0x77, 0x3c, 0xb4, 0x79, 0x77, 0x3c,
  0xb4, 0x79, 0x77, 0x3c, 0xb4, 0x79, 0x77, 0x3c, 0xb4, 0x79, 0x77, 0x3c,
  0xb4, 0x79, 0x77, 0x3c, 0xb4, 0x79, 0x77, 0x3c, 0xb4, 0x79, 0x77, 0x3c,
  0xb4, 0x79, 0x77, 0x3c, 0xb4, 0x79, 0x77, 0x3c, 0xb4, 0x79, 0x77, 0x3c,
  0xb4, 0x79, 0x77, 0x3c, 0xb4, 0x79, 0x77, 0x3c, 0xb4, 0x79, 0x77, 0x3c,
  0xb4, 0x79, 0x77, 0x3c, 0xb4, 0x79, 0x77, 0x3c, 0xb4, 0x79, 0x77, 0x3c,
  0xb4, 0x79, 0x77, 0x3c, 0xb4, 0x79, 0x77, 0x3c, 0xb4, 0x79, 0x77, 0x3c,
  0xb4, 0x79, 0x77, 0x3c, 0xb4, 0x79, 0x77, 0x3c, 0xb4, 0x79, 0x77, 0x3c,
  0xb4, 0x79, 0x77, 0x3c, 0xb4, 0x79, 0x77, 0x3c, 0xb4, 0x79, 0x77, 0x3c,
  0xb4, 0x79, 0x77, 0x3c, 0xb4, 0x79, 0x77, 0x3c, 0xb4, 0x79, 0x77, 0x3c,
  0xb4, 0x79, 0x77, 0x3c, 0xb4, 0x79, 0x77, 0x3c, 0x0d, 0xcf, 0x63, 0xbe,
  0xb4, 0x79, 0x77, 0x3c, 0xb4, 0x79, 0x77, 0x3c, 0xb4, 0x79, 0x77, 0x3c,
  0xb4, 0x79, 0x77, 0x3c, 0xb4, 0x79, 0x77, 0x3c, 0xb4, 0x79, 0x77, 0x3c,
  0xb4, 0x79, 0x77, 0x3c, 0xb4, 0x79, 0x77, 0x3c, 0xb4, 0x79, 0x77, 0x3c,
  0xb4, 0x79, 0x77, 0x3c, 0xb4, 0x79, 0x77, 0x3c, 0xb4, 0x79, 0x77, 0x3c,
  0x0d, 0xcf, 0x63, 0xbe, 0xb4, 0x79, 0x77, 0x3c, 0xb4, 0x79, 0x77, 0x3c,
  0xb4, 0x79, 0x77, 0x3c, 0xb4, 0x79, 0x77, 0x3c, 0xb4, 0x79, 0x77, 0x3c,
  0xb4, 0x79, 0x77, 0x3c, 0x0d, 0xcf, 0x63, 0xbe, 0x0d, 0xcf, 0x63, 0xbe,
  0xb4, 0x79, 0x77, 0x3c, 0xb4, 0x79, 0x77, 0x3c, 0xb4, 0x79, 0x77, 0x3c,
  0x0d, 0xcf, 0x63, 0xbe, 0xb4, 0x79, 0x77, 0x3c, 0xb4, 0x79, 0x77, 0x3c,
  0xb4, 0x79, 0x77, 0x3c, 0xb4, 0x79, 0x77, 0x3c, 0xb4, 0x79, 0x77, 0x3c,
  0xb4, 0x79, 0x77, 0x3c, 0xb4, 0x79, 0x77, 0x3c, 0xb4, 0x79, 0x77, 0x3c,
  0x0d, 0xcf, 0x63, 0xbe, 0x0d, 0xcf, 0x63, 0xbe, 0xb4, 0x79, 0x77, 0x3c,
  0xb4, 0x79, 0x77, 0x3c, 0xb4, 0x79, 0x77, 0x3c, 0xb4, 0x79, 0x77, 0x3c,
  0xb4, 0x79, 0x77, 0x3c, 0xb4, 0x79, 0x77, 0x3c, 0xb4, 0x79, 0x77, 0x3c,
  0xb4, 0x79, 0x77, 0x3c, 0xb4, 0x79, 0x77, 0x3c, 0x0d, 0xcf, 0x63, 0xbe,
  0xb4, 0x79, 0x77, 0x3c, 0xb4, 0x79, 0x77, 0x3c, 0xb4, 0x79, 0x77, 0x3c,
  0xb4, 0x79, 0x77, 0x3c, 0xb4, 0x79, 0x77, 0x3c, 0xb4, 0x79, 0x77, 0x3c,
  0xb4, 0x79, 0x77, 0x3c, 0xb4, 0x79, 0x77, 0x3c, 0xb4, 0x79, 0x77, 0x3c,
  0xb4, 0x79, 0x77, 0x3c, 0xb4, 0x79, 0x77, 0x3c, 0xb4, 0x79, 0x77, 0x3c,
  0xb4, 0x79, 0x77, 0x3c, 0xb4, 0x79, 0x77, 0x3c, 0xb4, 0x79, 0x77, 0x3c,
  0xb4, 0x79, 0x77, 0x3c, 0xb4, 0x79, 0x77, 0x3c, 0xb4, 0x79, 0x77, 0x3c,
  0xb4, 0x79, 0x77, 0x3c, 0xb4, 0x79, 0x77, 0x3c, 0xb4, 0x79, 0x77, 0x3c,
  0xb4, 0x79, 0x77, 0x3c, 0xb4, 0x79, 0x77, 0x3c, 0x0d, 0xcf, 0x63, 0xbe,
  0xb4, 0x79, 0x77, 0x3c, 0x0d, 0xcf, 0x63, 0xbe, 0xb4, 0x79, 0x77, 0x3c,
  0xb4, 0x79, 0x77, 0x3c, 0xb4, 0x79, 0x77, 0x3c, 0xb4, 0x79, 0x77, 0x3c,
  0xb4, 0x79, 0x77, 0x3c, 0xb4, 0x79, 0x77, 0x3c, 0x0d, 0xcf, 0x63, 0xbe,
  0x0d, 0xcf, 0x63, 0xbe, 0xb4, 0x79, 0x77, 0x3c, 0x0d, 0xcf, 0x63, 0xbe,
  0xb4, 0x79, 0x77, 0x3c, 0xb4, 0x79, 0x77, 0x3c, 0xb4, 0x79, 0x77, 0x3c,
  0xb4, 0x79, 0x77, 0x3c, 0xb4, 0x79, 0x77, 0x3c, 0xb4, 0x79, 0x77, 0x3c,
  0xb4, 0x79, 0x77, 0x3c, 0xb4, 0x79, 0x77, 0x3c, 0xb4, 0x79, 0x77, 0x3c,
  0xb4, 0x79, 0x77, 0x3c, 0xb4, 0x79, 0x77, 0x3c, 0x0d, 0xcf, 0x63, 0xbe,
  0xb4, 0x79, 0x77, 0x3c, 0xb4, 0x79, 0x77, 0x3c, 0x0d, 0xcf, 0x63, 0xbe,
  0xb4, 0x79, 0x77, 0x3c, 0xb4, 0x79, 0x77, 0x3c, 0xb4, 0x79, 0x77, 0x3c,
  0xb4, 0x79, 0x77, 0x3c, 0x0d, 0xcf, 0x63, 0xbe, 0xb4, 0x79, 0x77, 0x3c,
  0xb4, 0x79, 0x77, 0x3c, 0xb4, 0x79, 0x77, 0x3c, 0xb4, 0x79, 0x77, 0x3c,
  0xb4, 0x79, 0x77, 0x3c, 0xb4, 0x79, 0x77, 0x3c, 0xb4, 0x79, 0x77, 0x3c,
  0xb4, 0x79, 0x77, 0x3c, 0xb4, 0x79, 0x77, 0x3c, 0xb4, 0x79, 0x77, 0x3c,
  0xb4, 0x79, 0x77, 0x3c, 0x0d, 0xcf, 0x63, 0xbe, 0xb4, 0x79, 0x77, 0x3c,
  0xb4, 0x79, 0x77, 0x3c, 0xb4, 0x79, 0x77, 0x3c, 0xb4, 0x79, 0x77, 0x3c,
  0xb4, 0x79, 0x77, 0x3c, 0xb4, 0x79, 0x77, 0x3c, 0xb4, 0x79, 0x77, 0x3c,
  0xb4, 0x79, 0x77, 0x3c, 0xb4, 0x79, 0x77, 0x3c, 0xb4, 0x79, 0x77, 0x3c,
  0x0d, 0xcf, 0x63, 0xbe, 0xb4, 0x79, 0x77, 0x3c, 0xb4, 0x79, 0x77, 0x3c,
  0xb4, 0x79, 0x77, 0x3c, 0xb4, 0x79, 0x77, 0x3c, 0xb4, 0x79, 0x77, 0x3c,
  0xb4, 0x79, 0x77, 0x3c, 0xb4, 0x79, 0x77, 0x3c, 0xb4, 0x79, 0x77, 0x3c,
  0xb4, 0x79, 0x77, 0x3c, 0xb4, 0x79, 0x77, 0x3c, 0xb4, 0x79, 0x77, 0x3c,
  0xb4, 0x79, 0x77, 0x3c, 0xb4, 0x79, 0x77, 0x3c, 0xb4, 0x79, 0x77, 0x3c,
  0xb4, 0x79, 0x77, 0x3c, 0xb4, 0x79, 0x77, 0x3c, 0xb4, 0x79, 0x77, 0x3c,
  0xb4, 0x79, 0x77, 0x3c, 0xb4, 0x79, 0x77, 0x3c, 0xb4, 0x79, 0x77, 0x3c,
  0xb4, 0x79, 0x77, 0x3c, 0xb4, 0x79, 0x77, 0x3c, 0xb4, 0x79, 0x77, 0x3c,
  0xb4, 0x79, 0x77, 0x3c, 0xb4, 0x79, 0x77, 0x3c, 0xb4, 0x79, 0x77, 0x3c,
  0xb4, 0x79, 0x77, 0x3c, 0xb4, 0x79, 0x77, 0x3c, 0xb4, 0x79, 0x77, 0x3c,
  0xb4, 0x79, 0x77, 0x3c, 0x0d, 0xcf, 0x63, 0xbe, 0xb4, 0x79, 0x77, 0x3c,
  0xb4, 0x79, 0x77, 0x3c, 0xb4, 0x79, 0x77, 0x3c, 0xb4, 0x79, 0x77, 0x3c,
  0xb4, 0x79, 0x77, 0x3c, 0xb4, 0x79, 0x77, 0x3c, 0xb4, 0x79, 0x77, 0x3c,
  0x0d, 0xcf, 0x63, 0xbe, 0xb4, 0x79, 0x77, 0x3c, 0x0d, 0xcf, 0x63, 0xbe,
  0xb4, 0x79, 0x77, 0x3c, 0x0d, 0xcf, 0x63, 0xbe, 0x0d, 0xcf, 0x63, 0xbe,
  0xb4, 0x79, 0x77, 0x3c, 0xb4, 0x79, 0x77, 0x3c, 0xb4, 0x79, 0x77, 0x3c,
  0xb4, 0x79, 0x77, 0x3c, 0xb4, 0x79, 0x77, 0x3c, 0xb4, 0x79, 0x77, 0x3c,
  0x0d, 0xcf, 0x63, 0xbe, 0xb4, 0x79, 0x77, 0x3c, 0xb4, 0x79, 0x77, 0x3c,
  0xb4, 0x79, 0x77, 0x3c, 0xb4, 0x79, 0x77, 0x3c, 0xb4, 0x79, 0x77, 0x3c,
  0xb4, 0x79, 0x77, 0x3c, 0xb4, 0x79, 0x77, 0x3c, 0x0d, 0xcf, 0x63, 0xbe,
  0xb4, 0x79, 0x77, 0x3c, 0xb4, 0x79, 0x77, 0x3c, 0xb4, 0x79, 0x77, 0x3c,
  0x0d, 0xcf, 0x63, 0xbe, 0xb4, 0x79, 0x77, 0x3c, 0xb4, 0x79, 0x77, 0x3c,
  0xb4, 0x79, 0x77, 0x3c, 0xb4, 0x79, 0x77, 0x3c, 0xb4, 0x79, 0x77, 0x3c,
  0xb4, 0x79, 0x77, 0x3c, 0xb4, 0x79, 0x77, 0x3c, 0xb4, 0x79, 0x77, 0x3c,
  0xb4, 0x79, 0x77, 0x3c, 0xb4, 0x79, 0x77, 0x3c, 0xb4, 0x79, 0x77, 0x3c,
  0xb4, 0x79, 0x77, 0x3c, 0xb4, 0x79, 0x77, 0x3c, 0xb4, 0x79, 0x77, 0x3c,
  0xb4, 0x79, 0x77, 0x3c, 0xb4, 0x79, 0x77, 0x3c, 0xb4, 0x79, 0x77, 0x3c,
  0xb4, 0x79, 0x77, 0x3c, 0xb4, 0x79, 0x77, 0x3c, 0xb4, 0x79, 0x77, 0x3c,
  0x0d, 0xcf, 0x63, 0xbe, 0xb4, 0x79, 0x77, 0x3c, 0xb4, 0x79, 0x77, 0x3c,
  0xb4, 0x79, 0x77, 0x3c, 0xb4, 0x79, 0x77, 0x3c, 0x0d, 0xcf, 0x63, 0xbe,
  0xb4, 0x79, 0x77, 0x3c, 0xb4, 0x79, 0x77, 0x3c, 0x0d, 0xcf, 0x63, 0xbe,
  0xb4, 0x79, 0x77, 0x3c, 0xb4, 0x79, 0x77, 0x3c, 0xb4, 0x79, 0x77, 0x3c,
  0xb4, 0x79, 0x77, 0x3c, 0x0d, 0xcf, 0x63, 0xbe, 0xb4, 0x79, 0x77, 0x3c,
  0xb4, 0x79, 0x77, 0x3c, 0xb4, 0x79, 0x77, 0x3c, 0xb4, 0x79, 0x77, 0x3c,
  0xb4, 0x79, 0x77, 0x3c, 0xb4, 0x79, 0x77, 0x3c, 0xb4, 0x79, 0x77, 0x3c,
  0xb4, 0x79, 0x77, 0x3c, 0xb4, 0x79, 0x77, 0x3c, 0xb4, 0x79, 0x77, 0x3c,
  0x0d, 0xcf, 0x63, 0xbe, 0xb4, 0x79, 0x77, 0x3c, 0xb4, 0x79, 0x77, 0x3c,
  0xb4, 0x79, 0x77, 0x3c, 0xb4, 0x79, 0x77, 0x3c, 0xb4, 0x79, 0x77, 0x3c,
  0xb4, 0x79, 0x77, 0x3c, 0xb4, 0x79, 0x77, 0x3c, 0xb4, 0x79, 0x77, 0x3c,
  0xb4, 0x79, 0x77, 0x3c, 0xb4, 0x79, 0x77, 0x3c, 0xb4, 0x79, 0x77, 0x3c,
  0xb4, 0x79, 0x77, 0x3c, 0xb4, 0x79, 0x77, 0x3c, 0xb4, 0x79, 0x77, 0x3c,
  0xb4, 0x79, 0x77, 0x3c, 0xb4, 0x79, 0x77, 0x3c, 0xb4, 0x79, 0x77, 0x3c,
  0xb4, 0x79, 0x77, 0x3c, 0xb4, 0x79, 0x77, 0x3c, 0xb4, 0x79, 0x77, 0x3c,
  0x0d, 0xcf, 0x63, 0xbe, 0x30, 0x35, 0x82, 0x3e, 0xb4, 0x79, 0x77, 0x3c,
  0xb4, 0x79, 0x77, 0x3c, 0xb4, 0x79, 0x77, 0x3c, 0xb4, 0x79, 0x77, 0x3c,
  0xb4, 0x79, 0x77, 0x3c, 0x30, 0x35, 0x82, 0x3e, 0xb4, 0x79, 0x77, 0x3c,
  0xb4, 0x79, 0x77, 0x3c, 0xb4, 0x79, 0x77, 0x3c, 0x0d, 0xcf, 0x63, 0xbe,
  0xb4, 0x79, 0x77, 0x3c, 0xb4, 0x79, 0x77, 0x3c, 0xb4, 0x79, 0x77, 0x3c,
  0xb4, 0x79, 0x77, 0x3c, 0xb4, 0x79, 0x77, 0x3c, 0xb4, 0x79, 0x77, 0x3c,
  0xb4, 0x79, 0x77, 0x3c, 0x0d, 0xcf, 0x63, 0xbe, 0xb4, 0x79, 0x77, 0x3c,
  0xb4, 0x79, 0x77, 0x3c, 0xb4, 0x79, 0x77, 0x3c, 0xb4, 0x79, 0x77, 0x3c,
  0xb4, 0x79, 0x77, 0x3c, 0x0d, 0xcf, 0x63, 0xbe, 0xb4, 0x79, 0x77, 0x3c,
  0xb4, 0x79, 0x77, 0x3c, 0xb4, 0x79, 0x77, 0x3c, 0xb4, 0x79, 0x77, 0x3c,
  0xb4, 0x79, 0x77, 0x3c, 0xb4, 0x79, 0x77, 0x3c, 0xb4, 0x79, 0x77, 0x3c,
  0xb4, 0x79, 0x77, 0x3c, 0xb4, 0x79, 0x77, 0x3c, 0xb4, 0x79, 0x77, 0x3c,
  0xb4, 0x79, 0x77, 0x3c, 0xb4, 0x79, 0x77, 0x3c, 0xb4, 0x79, 0x77, 0x3c,
  0xb4, 0x79, 0x77, 0x3c, 0xb4, 0x79, 0x77, 0x3c, 0xb4, 0x79, 0x77, 0x3c,
  0xb4, 0x79, 0x77, 0x3c, 0xb4, 0x79, 0x77, 0x3c, 0xb4, 0x79, 0x77, 0x3c,
  0xb4, 0x79, 0x77, 0x3c, 0x0d, 0xcf, 0x63, 0xbe, 0xb4, 0x79, 0x77, 0x3c,
  0xb4, 0x79, 0x77, 0x3c, 0xb4, 0x79, 0x77, 0x3c, 0xb4, 0x79, 0x77, 0x3c,
  0xb4, 0x79, 0x77, 0x3c, 0xb4, 0x79, 0x77, 0x3c, 0x0d, 0xcf, 0x63, 0xbe,
  0xb4, 0x79, 0x77, 0x3c, 0xb4, 0x79, 0x77, 0x3c, 0xb4, 0x79, 0x77, 0x3c,
  0xb4, 0x79, 0x77, 0x3c, 0xb4, 0x79, 0x77, 0x3c, 0xb4, 0x79, 0x77, 0x3c,
  0xb4, 0x79, 0x77, 0x3c, 0xb4, 0x79, 0x77, 0x3c, 0xb4, 0x79, 0x77, 0x3c,
  0xb4, 0x79, 0x77, 0x3c, 0xb4, 0x79, 0x77, 0x3c, 0x0d, 0xcf, 0x63, 0xbe,
  0xb4, 0x79, 0x77, 0x3c, 0xb4, 0x79, 0x77, 0x3c, 0xb4, 0x79, 0x77, 0x3c,
  0x0d, 0xcf, 0x63, 0xbe, 0xb4, 0x79, 0x77, 0x3c, 0xb4, 0x79, 0x77, 0x3c,
  0xb4, 0x79, 0x77, 0x3c, 0xb4, 0x79, 0x77, 0x3c, 0xb4, 0x79, 0x77, 0x3c,
  0xb4, 0x79, 0x77, 0x3c, 0xb4, 0x79, 0x77, 0x3c, 0x0d, 0xcf, 0x63, 0xbe,
  0xb4, 0x79, 0x77, 0x3c, 0xb4, 0x79, 0x77, 0x3c, 0xb4, 0x79, 0x77, 0x3c,
  0xb4, 0x79, 0x77, 0x3c, 0xb4, 0x79, 0x77, 0x3c, 0xb4, 0x79, 0x77, 0x3c,
  0x0d, 0xcf, 0x63, 0xbe, 0xb4, 0x79, 0x77, 0x3c, 0xb4, 0x79, 0x77, 0x3c,
  0x0d, 0xcf, 0x63, 0xbe, 0xb4, 0x79, 0x77, 0x3c, 0xb4, 0x79, 0x77, 0x3c,
  0xb4, 0x79, 0x77, 0x3c, 0x0d, 0xcf, 0x63, 0xbe, 0xb4, 0x79, 0x77, 0x3c,
  0xb4, 0x79, 0x77, 0x3c, 0xb4, 0x79, 0x77, 0x3c, 0xb4, 0x79, 0x77, 0x3c,
  0xb4, 0x79, 0x77, 0x3c, 0xb4, 0x79, 0x77, 0x3c, 0xb4, 0x79, 0x77, 0x3c,
  0xb4, 0x79, 0x77, 0x3c, 0xb4, 0x79, 0x77, 0x3c, 0x0d, 0xcf, 0x63, 0xbe,
  0xb4, 0x79, 0x77, 0x3c, 0x0d, 0xcf, 0x63, 0xbe, 0x0d, 0xcf, 0x63, 0xbe,
  0xb4, 0x79, 0x77, 0x3c, 0xb4, 0x79, 0x77, 0x3c, 0xb4, 0x79, 0x77, 0x3c,
  0xb4, 0x79, 0x77, 0x3c, 0xb4, 0x79, 0x77, 0x3c, 0xb4, 0x79, 0x77, 0x3c,
  0xb4, 0x79, 0x77, 0x3c, 0xb4, 0x79, 0x77, 0x3c, 0xb4, 0x79, 0x77, 0x3c,
  0xb4, 0x79, 0x77, 0x3c, 0x0d, 0xcf, 0x63, 0xbe, 0x0d, 0xcf, 0x63, 0xbe,
  0xb4, 0x79, 0x77, 0x3c, 0xb4, 0x79, 0x77, 0x3c, 0x0d, 0xcf, 0x63, 0xbe,
  0x0d, 0xcf, 0x63, 0xbe, 0xb4, 0x79, 0x77, 0x3c, 0xb4, 0x79, 0x77, 0x3c,
  0xb4, 0x79, 0x77, 0x3c, 0xb4, 0x79, 0x77, 0x3c, 0xb4, 0x79, 0x77, 0x3c,
  0xb4, 0x79, 0x77, 0x3c, 0xb4, 0x79, 0x77, 0x3c, 0xb4, 0x79, 0x77, 0x3c,
  0xb4, 0x79, 0x77, 0x3c, 0xb4, 0x79, 0x77, 0x3c, 0x0d, 0xcf, 0x63, 0xbe,
  0xb4, 0x79, 0x77, 0x3c, 0x0d, 0xcf, 0x63, 0xbe, 0xb4, 0x79, 0x77, 0x3c,
  0x0d, 0xcf, 0x63, 0xbe, 0xb4, 0x79, 0x77, 0x3c, 0xb4, 0x79, 0x77, 0x3c,
  0xb4, 0x79, 0x77, 0x3c, 0x0d, 0xcf, 0x63, 0xbe, 0x0d, 0xcf, 0x63, 0xbe,
  0xb4, 0x79, 0x77, 0x3c, 0x0d, 0xcf, 0x63, 0xbe, 0xb4, 0x79, 0x77, 0x3c,
  0xb4, 0x79, 0x77, 0x3c, 0xb4, 0x79, 0x77, 0x3c, 0xb4, 0x79, 0x77, 0x3c,
  0xb4, 0x79, 0x77, 0x3c, 0xb4, 0x79, 0x77, 0x3c, 0x0d, 0xcf, 0x63, 0xbe,
  0x0d, 0xcf, 0x63, 0xbe, 0xb4, 0x79, 0x77, 0x3c, 0xb4, 0x79, 0x77, 0x3c,
  0xb4, 0x79, 0x77, 0x3c, 0x0d, 0xcf, 0x63, 0xbe, 0x0d, 0xcf, 0x63, 0xbe,
  0xb4, 0x79, 0x77, 0x3c, 0xb4, 0x79, 0x77, 0x3c, 0xb4, 0x79, 0x77, 0x3c,
  0xb4, 0x79, 0x77, 0x3c, 0xb4, 0x79, 0x77, 0x3c, 0x0d, 0xcf, 0x63, 0xbe,
  0xb4, 0x79, 0x77, 0x3c, 0x0d, 0xcf, 0x63, 0xbe, 0xb4, 0x79, 0x77, 0x3c,
  0x0d, 0xcf, 0x63, 0xbe, 0xb4, 0x79, 0x77, 0x3c, 0xb4, 0x79, 0x77, 0x3c,
  0xb4, 0x79, 0x77, 0x3c, 0xb4, 0x79, 0x77, 0x3c, 0xb4, 0x79, 0x77, 0x3c,
  0xb4, 0x79, 0x77, 0x3c, 0xb4, 0x79, 0x77, 0x3c, 0xb4, 0x79, 0x77, 0x3c,
  0xb4, 0x79, 0x77, 0x3c, 0xb4, 0x79, 0x77, 0x3c, 0xb4, 0x79, 0x77, 0x3c,
  0xb4, 0x79, 0x77, 0x3c, 0xb4, 0x79, 0x77, 0x3c, 0xb4, 0x79, 0x77, 0x3c,
  0xb4, 0x79, 0x77, 0x3c, 0xb4, 0x79, 0x77, 0x3c, 0xb4, 0x79, 0x77, 0x3c,
  0xb4, 0x79, 0x77, 0x3c, 0xb4, 0x79, 0x77, 0x3c, 0xb4, 0x79, 0x77, 0x3c,
  0xb4, 0x79, 0x77, 0x3c, 0xb4, 0x79, 0x77, 0x3c, 0xb4, 0x79, 0x77, 0x3c,
  0xb4, 0x79, 0x77, 0x3c, 0xb4, 0x79, 0x77, 0x3c, 0xb4, 0x79, 0x77, 0x3c,
  0xb4, 0x79, 0x77, 0x3c, 0xb4, 0x79, 0x77, 0x3c, 0xb4, 0x79, 0x77, 0x3c,
  0x30, 0x35, 0x82, 0x3e, 0xb4, 0x79, 0x77, 0x3c, 0xb4, 0x79, 0x77, 0x3c,
  0xb4, 0x79, 0x77, 0x3c, 0xb4, 0x79, 0x77, 0x3c, 0xb4, 0x79, 0x77, 0x3c,
  0xb4, 0x79, 0x77, 0x3c, 0xb4, 0x79, 0x77, 0x3c, 0xb4, 0x79, 0x77, 0x3c,
  0xb4, 0x79, 0x77, 0x3c, 0xb4, 0x79, 0x77, 0x3c, 0xb4, 0x79, 0x77, 0x3c,
  0xb4, 0x79, 0x77, 0x3c, 0xb4, 0x79, 0x77, 0x3c, 0xb4, 0x79, 0x77, 0x3c,
  0xb4, 0x79, 0x77, 0x3c, 0xb4, 0x79, 0x77, 0x3c, 0xb4, 0x79, 0x77, 0x3c,
  0xb4, 0x79, 0x77, 0x3c, 0xb4, 0x79, 0x77, 0x3c, 0xb4, 0x79, 0x77, 0x3c,
  0xb4, 0x79, 0x77, 0x3c, 0xb4, 0x79, 0x77, 0x3c, 0xb4, 0x79, 0x77, 0x3c,
  0xb4, 0x79, 0x77, 0x3c, 0xb4, 0x79, 0x77, 0x3c, 0xb4, 0x79, 0x77, 0x3c,
  0xb4, 0x79, 0x77, 0x3c, 0xb4, 0x79, 0x77, 0x3c, 0xb4, 0x79, 0x77, 0x3c,
  0xb4, 0x79, 0x77, 0x3c, 0xb4, 0x79, 0x77, 0x3c, 0xb4, 0x79, 0x77, 0x3c,
  0xb4, 0x79, 0x77, 0x3c, 0xb4, 0x79, 0x77, 0x3c, 0xb4, 0x79, 0x77, 0x3c,
  0xb4, 0x79, 0x77, 0x3c, 0xb4, 0x79, 0x77, 0x3c, 0xb4, 0x79, 0x77, 0x3c,
  0xb4, 0x79, 0x77, 0x3c, 0xb4, 0x79, 0x77, 0x3c, 0xb4, 0x79, 0x77, 0x3c,
  0xb4, 0x79, 0x77, 0x3c, 0xb4, 0x79, 0x77, 0x3c, 0xb4, 0x79, 0x77, 0x3c,
  0xb4, 0x79, 0x77, 0x3c, 0xb4, 0x79, 0x77, 0x3c, 0xb4, 0x79, 0x77, 0x3c,
  0xb4, 0x79, 0x77, 0x3c, 0xb4, 0x79, 0x77, 0x3c, 0xb4, 0x79, 0x77, 0x3c,
  0x30, 0x35, 0x82, 0x3e, 0xb4, 0x79, 0x77, 0x3c, 0xb4, 0x79, 0x77, 0x3c,
  0xb4, 0x79, 0x77, 0x3c, 0xb4, 0x79, 0x77, 0x3c, 0xb4, 0x79, 0x77, 0x3c,
  0xb4, 0x79, 0x77, 0x3c, 0xb4, 0x79, 0x77, 0x3c, 0xb4, 0x79, 0x77, 0x3c,
  0xb4, 0x79, 0x77, 0x3c, 0xb4, 0x79, 0x77, 0x3c, 0xb4, 0x79, 0x77, 0x3c,
  0xb4, 0x79, 0x77, 0x3c, 0xb4, 0x79, 0x77, 0x3c, 0xb4, 0x79, 0x77, 0x3c,
  0xb4, 0x79, 0x77, 0x3c, 0xb4, 0x79, 0x77, 0x3c, 0xb4, 0x79, 0x77, 0x3c,
  0xb4, 0x79, 0x77, 0x3c, 0x30, 0x35, 0x82, 0x3e, 0xb4, 0x79, 0x77, 0x3c,
  0xb4, 0x79, 0x77, 0x3c, 0xb4, 0x79, 0x77, 0x3c, 0xb4, 0x79, 0x77, 0x3c,
  0xb4, 0x79, 0x77, 0x3c, 0xb4, 0x79, 0x77, 0x3c, 0xb4, 0x79, 0x77, 0x3c,
  0xb4, 0x79, 0x77, 0x3c, 0xb4, 0x79, 0x77, 0x3c, 0xb4, 0x79, 0x77, 0x3c,
  0xb4, 0x79, 0x77, 0x3c, 0xb4, 0x79, 0x77, 0x3c, 0xb4, 0x79, 0x77, 0x3c,
  0xb4, 0x79, 0x77, 0x3c, 0xb4, 0x79, 0x77, 0x3c, 0xb4, 0x79, 0x77, 0x3c,
  0xb4, 0x79, 0x77, 0x3c, 0xb4, 0x79, 0x77, 0x3c, 0xb4, 0x79, 0x77, 0x3c,
  0xb4, 0x79, 0x77, 0x3c, 0xb4, 0x79, 0x77, 0x3c, 0xb4, 0x79, 0x77, 0x3c,
  0xb4, 0x79, 0x77, 0x3c, 0xb4, 0x79, 0x77, 0x3c, 0xb4, 0x79, 0x77, 0x3c,
  0xb4, 0x79, 0x77, 0x3c, 0xb4, 0x79, 0x77, 0x3c, 0xb4, 0x79, 0x77, 0x3c,
  0xb4, 0x79, 0x77, 0x3c, 0xb4, 0x79, 0x77, 0x3c, 0xb4, 0x79, 0x77, 0x3c,
  0xb4, 0x79, 0x77, 0x3c, 0x30, 0x35, 0x82, 0x3e, 0xb4, 0x79, 0x77, 0x3c,
  0xb4, 0x79, 0x77, 0x3c, 0xb4, 0x79, 0x77, 0x3c, 0xb4, 0x79, 0x77, 0x3c,
  0xb4, 0x79, 0x77, 0x3c, 0xb4, 0x79, 0x77, 0x3c, 0xb4, 0x79, 0x77, 0x3c,
  0xb4, 0x79, 0x77, 0x3c, 0xb4, 0x79, 0x77, 0x3c, 0xb4, 0x79, 0x77, 0x3c,
  0xb4, 0x79, 0x77, 0x3c, 0xb4, 0x79, 0x77, 0x3c, 0xb4, 0x79, 0x77, 0x3c,
  0xb4, 0x79, 0x77, 0x3c, 0xb4, 0x79, 0x77, 0x3c, 0xb4, 0x79, 0x77, 0x3c,
  0xb4, 0x79, 0x77, 0x3c, 0xb4, 0x79, 0x77, 0x3c, 0xb4, 0x79, 0x77, 0x3c,
  0xb4, 0x79, 0x77, 0x3c, 0xb4, 0x79, 0x77, 0x3c, 0xb4, 0x79, 0x77, 0x3c,
  0xb4, 0x79, 0x77, 0x3c, 0x30, 0x35, 0x82, 0x3e, 0xb4, 0x79, 0x77, 0x3c,
  0xb4, 0x79, 0x77, 0x3c, 0xb4, 0x79, 0x77, 0x3c, 0xb4, 0x79, 0x77, 0x3c,
  0x30, 0x35, 0x82, 0x3e, 0xb4, 0x79, 0x77, 0x3c, 0xb4, 0x79, 0x77, 0x3c,
  0xb4, 0x79, 0x77, 0x3c, 0xb4, 0x79, 0x77, 0x3c, 0xb4, 0x79, 0x77, 0x3c,
  0xb4, 0x79, 0x77, 0x3c, 0xb4, 0x79, 0x77, 0x3c, 0xb4, 0x79, 0x77, 0x3c,
  0xb4, 0x79, 0x77, 0x3c, 0xb4, 0x79, 0x77, 0x3c, 0xb4, 0x79, 0x77, 0x3c,
  0xb4, 0x79, 0x77, 0x3c, 0xb4, 0x79, 0x77, 0x3c, 0xb4, 0x79, 0x77, 0x3c,
  0xb4, 0x79, 0x77, 0x3c, 0xb4, 0x79, 0x77, 0x3c, 0xb4, 0x79, 0x77, 0x3c,
  0xb4, 0x79, 0x77, 0x3c, 0xb4, 0x79, 0x77, 0x3c, 0x0d, 0xcf, 0x63, 0xbe,
  0xb4, 0x79, 0x77, 0x3c, 0xb4, 0x79, 0x77, 0x3c, 0xb4, 0x79, 0x77, 0x3c,
  0xb4, 0x79, 0x77, 0x3c, 0x30, 0x35, 0x82, 0x3e, 0xb4, 0x79, 0x77, 0x3c,
  0xb4, 0x79, 0x77, 0x3c, 0xb4, 0x79, 0x77, 0x3c, 0xb4, 0x79, 0x77, 0x3c,
  0xb4, 0x79, 0x77, 0x3c, 0x0d, 0xcf, 0x63, 0xbe, 0xb4, 0x79, 0x77, 0x3c,
  0xb4, 0x79, 0x77, 0x3c, 0xb4, 0x79, 0x77, 0x3c, 0xb4, 0x79, 0x77, 0x3c,
  0xb4, 0x79, 0x77, 0x3c, 0xb4, 0x79, 0x77, 0x3c, 0xb4, 0x79, 0x77, 0x3c,
  0x0d, 0xcf, 0x63, 0xbe, 0xb4, 0x79, 0x77, 0x3c, 0xb4, 0x79, 0x77, 0x3c,
  0xb4, 0x79, 0x77, 0x3c, 0xb4, 0x79, 0x77, 0x3c, 0xb4, 0x79, 0x77, 0x3c,
  0xb4, 0x79, 0x77, 0x3c, 0xb4, 0x79, 0x77, 0x3c, 0xb4, 0x79, 0x77, 0x3c,
  0xb4, 0x79, 0x77, 0x3c, 0xb4, 0x79, 0x77, 0x3c, 0xb4, 0x79, 0x77, 0x3c,
  0xb4, 0x79, 0x77, 0x3c, 0xb4, 0x79, 0x77, 0x3c, 0xb4, 0x79, 0x77, 0x3c,
  0xb4, 0x79, 0x77, 0x3c, 0xb4, 0x79, 0x77, 0x3c, 0xb4, 0x79, 0x77, 0x3c,
  0xb4, 0x79, 0x77, 0x3c, 0xb4, 0x79, 0x77, 0x3c, 0xb4, 0x79, 0x77, 0x3c,
  0xb4, 0x79, 0x77, 0x3c, 0xb4, 0x79, 0x77, 0x3c, 0xb4, 0x79, 0x77, 0x3c,
  0x30, 0x35, 0x82, 0x3e, 0xb4, 0x79, 0x77, 0x3c, 0xb4, 0x79, 0x77, 0x3c,
  0xb4, 0x79, 0x77, 0x3c, 0x0d, 0xcf, 0x63, 0xbe, 0xb4, 0x79, 0x77, 0x3c,
  0xb4, 0x79, 0x77, 0x3c, 0xb4, 0x79, 0x77, 0x3c, 0xb4, 0x79, 0x77, 0x3c,
  0xb4, 0x79, 0x77, 0x3c, 0xb4, 0x79, 0x77, 0x3c, 0xb4, 0x79, 0x77, 0x3c,
  0xb4, 0x79, 0x77, 0x3c, 0xb4, 0x79, 0x77, 0x3c, 0xb4, 0x79, 0x77, 0x3c,
  0xb4, 0x79, 0x77, 0x3c, 0xb4, 0x79, 0x77, 0x3c, 0xb4, 0x79, 0x77, 0x3c,
  0xb4, 0x79, 0x77, 0x3c, 0xb4, 0x79, 0x77, 0x3c, 0xb4, 0x79, 0x77, 0x3c,
  0xb4, 0x79, 0x77, 0x3c, 0xb4, 0x79, 0x77, 0x3c, 0xb4, 0x79, 0x77, 0x3c,
  0xb4, 0x79, 0x77, 0x3c, 0x30, 0x35, 0x82, 0x3e, 0xb4, 0x79, 0x77, 0x3c,
  0xb4, 0x79, 0x77, 0x3c, 0xb4, 0x79, 0x77, 0x3c, 0xb4, 0x79, 0x77, 0x3c,
  0x30, 0x35, 0x82, 0x3e, 0xb4, 0x79, 0x77, 0x3c, 0xb4, 0x79, 0x77, 0x3c,
  0xb4, 0x79, 0x77, 0x3c, 0xb4, 0x79, 0x77, 0x3c, 0xb4, 0x79, 0x77, 0x3c,
  0xb4, 0x79, 0x77, 0x3c, 0x0d, 0xcf, 0x63, 0xbe, 0xb4, 0x79, 0x77, 0x3c,
  0xb4, 0x79, 0x77, 0x3c, 0xb4, 0x79, 0x77, 0x3c, 0xb4, 0x79, 0x77, 0x3c,
  0xb4, 0x79, 0x77, 0x3c, 0xb4, 0x79, 0x77, 0x3c, 0xb4, 0x79, 0x77, 0x3c,
  0xb4, 0x79, 0x77, 0x3c, 0x0d, 0xcf, 0x63, 0xbe, 0xb4, 0x79, 0x77, 0x3c,
  0xb4, 0x79, 0x77, 0x3c, 0xb4, 0x79, 0x77, 0x3c, 0xb4, 0x79, 0x77, 0x3c,
  0xb4, 0x79, 0x77, 0x3c, 0xb4, 0x79, 0x77, 0x3c, 0xb4, 0x79, 0x77, 0x3c,
  0xb4, 0x79, 0x77, 0x3c, 0x30, 0x35, 0x82, 0x3e, 0xb4, 0x79, 0x77, 0x3c,
  0x30, 0x35, 0x82, 0x3e, 0x30, 0x35, 0x82, 0x3e, 0xb4, 0x79, 0x77, 0x3c,
  0xb4, 0x79, 0x77, 0x3c, 0xb4, 0x79, 0x77, 0x3c, 0xb4, 0x79, 0x77, 0x3c,
  0xb4, 0x79, 0x77, 0x3c, 0xb4, 0x79, 0x77, 0x3c, 0xb4, 0x79, 0x77, 0x3c,
  0xb4, 0x79, 0x77, 0x3c, 0xb4, 0x79, 0x77, 0x3c, 0xb4, 0x79, 0x77, 0x3c,
  0xb4, 0x79, 0x77, 0x3c, 0xb4, 0x79, 0x77, 0x3c, 0xb4, 0x79, 0x77, 0x3c,
  0xb4, 0x79, 0x77, 0x3c, 0xb4, 0x79, 0x77, 0x3c, 0xb4, 0x79, 0x77, 0x3c,
  0xb4, 0x79, 0x77, 0x3c, 0xb4, 0x79, 0x77, 0x3c, 0x30, 0x35, 0x82, 0x3e,
  0xb4, 0x79, 0x77, 0x3c, 0xb4, 0x79, 0x77, 0x3c, 0xb4, 0x79, 0x77, 0x3c,
  0xb4, 0x79, 0x77, 0x3c, 0xb4, 0x79, 0x77, 0x3c, 0xb4, 0x79, 0x77, 0x3c,
  0xb4, 0x79, 0x77, 0x3c, 0xb4, 0x79, 0x77, 0x3c, 0xb4, 0x79, 0x77, 0x3c,
  0xb4, 0x79, 0x77, 0x3c, 0xb4, 0x79, 0x77, 0x3c, 0xb4, 0x79, 0x77, 0x3c,
  0xb4, 0x79, 0x77, 0x3c, 0xb4, 0x79, 0x77, 0x3c, 0xb4, 0x79, 0x77, 0x3c,
  0xb4, 0x79, 0x77, 0x3c, 0xb4, 0x79, 0x77, 0x3c, 0xb4, 0x79, 0x77, 0x3c,
  0xb4, 0x79, 0x77, 0x3c, 0x30, 0x35, 0x82, 0x3e, 0xb4, 0x79, 0x77, 0x3c,
  0xb4, 0x79, 0x77, 0x3c, 0xb4, 0x79, 0x77, 0x3c, 0xb4, 0x79, 0x77, 0x3c,
  0xb4, 0x79, 0x77, 0x3c, 0xb4, 0x79, 0x77, 0x3c, 0xb4, 0x79, 0x77, 0x3c,
  0xb4, 0x79, 0x77, 0x3c, 0xb4, 0x79, 0x77, 0x3c, 0xb4, 0x79, 0x77, 0x3c,
  0xb4, 0x79, 0x77, 0x3c, 0xb4, 0x79, 0x77, 0x3c, 0xb4, 0x79, 0x77, 0x3c,
  0xb4, 0x79, 0x77, 0x3c, 0xb4, 0x79, 0x77, 0x3c, 0xb4, 0x79, 0x77, 0x3c,
  0xb4, 0x79, 0x77, 0x3c, 0xb4, 0x79, 0x77, 0x3c, 0xb4, 0x79, 0x77, 0x3c,
  0xb4, 0x79, 0x77, 0x3c, 0xb4, 0x79, 0x77, 0x3c, 0xb4, 0x79, 0x77, 0x3c,
  0xb4, 0x79, 0x77, 0x3c, 0xb4, 0x79, 0x77, 0x3c, 0xb4, 0x79, 0x77, 0x3c,
  0xb4, 0x79, 0x77, 0x3c, 0xb4, 0x79, 0x77, 0x3c, 0xb4, 0x79, 0x77, 0x3c,
  0xb4, 0x79, 0x77, 0x3c, 0xb4, 0x79, 0x77, 0x3c, 0xb4, 0x79, 0x77, 0x3c,
  0x30, 0x35, 0x82, 0x3e, 0xb4, 0x79, 0x77, 0x3c, 0xb4, 0x79, 0x77, 0x3c,
  0xb4, 0x79, 0x77, 0x3c, 0xb4, 0x79, 0x77, 0x3c, 0xb4, 0x79, 0x77, 0x3c,
  0xb4, 0x79, 0x77, 0x3c, 0xb4, 0x79, 0x77, 0x3c, 0xb4, 0x79, 0x77, 0x3c,
  0xb4, 0x79, 0x77, 0x3c, 0xb4, 0x79, 0x77, 0x3c, 0xb4, 0x79, 0x77, 0x3c,
  0xb4, 0x79, 0x77, 0x3c, 0xb4, 0x79, 0x77, 0x3c, 0xb4, 0x79, 0x77, 0x3c,
  0xb4, 0x79, 0x77, 0x3c, 0xb4, 0x79, 0x77, 0x3c, 0xb4, 0x79, 0x77, 0x3c,
  0xb4, 0x79, 0x77, 0x3c, 0xb4, 0x79, 0x77, 0x3c, 0xb4, 0x79, 0x77, 0x3c,
  0xb4, 0x79, 0x77, 0x3c, 0xb4, 0x79, 0x77, 0x3c, 0xb4, 0x79, 0x77, 0x3c,
  0xb4, 0x79, 0x77, 0x3c, 0xb4, 0x79, 0x77, 0x3c, 0xb4, 0x79, 0x77, 0x3c,
  0xb4, 0x79, 0x77, 0x3c, 0xb4, 0x79, 0x77, 0x3c, 0xb4, 0x79, 0x77, 0x3c,
  0xb4, 0x79, 0x77, 0x3c, 0x30, 0x35, 0x82, 0x3e, 0xb4, 0x79, 0x77, 0x3c,
  0xb4, 0x79, 0x77, 0x3c, 0xb4, 0x79, 0x77, 0x3c, 0xb4, 0x79, 0x77, 0x3c,
  0xb4, 0x79, 0x77, 0x3c, 0xb4, 0x79, 0x77, 0x3c, 0xb4, 0x79, 0x77, 0x3c,
  0xb4, 0x79, 0x77, 0x3c, 0xb4, 0x79, 0x77, 0x3c, 0xb4, 0x79, 0x77, 0x3c,
  0xb4, 0x79, 0x77, 0x3c, 0xb4, 0x79, 0x77, 0x3c, 0xb4, 0x79, 0x77, 0x3c,
  0xb4, 0x79, 0x77, 0x3c, 0xb4, 0x79, 0x77, 0x3c, 0xb4, 0x79, 0x77, 0x3c,
  0xb4, 0x79, 0x77, 0x3c, 0xb4, 0x79, 0x77, 0x3c, 0xb4, 0x79, 0x77, 0x3c,
  0xb4, 0x79, 0x77, 0x3c, 0xb4, 0x79, 0x77, 0x3c, 0xb4, 0x79, 0x77, 0x3c,
  0xb4, 0x79, 0x77, 0x3c, 0xb4, 0x79, 0x77, 0x3c, 0xb4, 0x79, 0x77, 0x3c,
  0xb4, 0x79, 0x77, 0x3c, 0xb4, 0x79, 0x77, 0x3c, 0xb4, 0x79, 0x77, 0x3c,
  0xb4, 0x79, 0x77, 0x3c, 0xb4, 0x79, 0x77, 0x3c, 0xb4, 0x79, 0x77, 0x3c,
  0xb4, 0x79, 0x77, 0x3c, 0xb4, 0x79, 0x77, 0x3c, 0xb4, 0x79, 0x77, 0x3c,
  0xb4, 0x79, 0x77, 0x3c, 0xb4, 0x79, 0x77, 0x3c, 0xb4, 0x79, 0x77, 0x3c,
  0x0d, 0xcf, 0x63, 0xbe, 0xb4, 0x79, 0x77, 0x3c, 0xb4, 0x79, 0x77, 0x3c,
  0xb4, 0x79, 0x77, 0x3c, 0xb4, 0x79, 0x77, 0x3c, 0xb4, 0x79, 0x77, 0x3c,
  0xb4, 0x79, 0x77, 0x3c, 0x0d, 0xcf, 0x63, 0xbe, 0xb4, 0x79, 0x77, 0x3c,
  0x0d, 0xcf, 0x63, 0xbe, 0x0d, 0xcf, 0x63, 0xbe, 0xb4, 0x79, 0x77, 0x3c,
  0xb4, 0x79, 0x77, 0x3c, 0xb4, 0x79, 0x77, 0x3c, 0xb4, 0x79, 0x77, 0x3c,
  0xb4, 0x79, 0x77, 0x3c, 0xb4, 0x79, 0x77, 0x3c, 0xb4, 0x79, 0x77, 0x3c,
  0xb4, 0x79, 0x77, 0x3c, 0xb4, 0x79, 0x77, 0x3c, 0xb4, 0x79, 0x77, 0x3c,
  0xb4, 0x79, 0x77, 0x3c, 0xb4, 0x79, 0x77, 0x3c, 0xb4, 0x79, 0x77, 0x3c,
  0xb4, 0x79, 0x77, 0x3c, 0xb4, 0x79, 0x77, 0x3c, 0xb4, 0x79, 0x77, 0x3c,
  0xb4, 0x79, 0x77, 0x3c, 0x0d, 0xcf, 0x63, 0xbe, 0xb4, 0x79, 0x77, 0x3c,
  0x0d, 0xcf, 0x63, 0xbe, 0xb4, 0x79, 0x77, 0x3c, 0x0d, 0xcf, 0x63, 0xbe,
  0xb4, 0x79, 0x77, 0x3c, 0x0d, 0xcf, 0x63, 0xbe, 0xb4, 0x79, 0x77, 0x3c,
  0xb4, 0x79, 0x77, 0x3c, 0xb4, 0x79, 0x77, 0x3c, 0xb4, 0x79, 0x77, 0x3c,
  0xb4, 0x79, 0x77, 0x3c, 0xb4, 0x79, 0x77, 0x3c, 0xb4, 0x79, 0x77, 0x3c,
  0x0d, 0xcf, 0x63, 0xbe, 0xb4, 0x79, 0x77, 0x3c, 0x0d, 0xcf, 0x63, 0xbe,
  0xb4, 0x79, 0x77, 0x3c, 0xb4, 0x79, 0x77, 0x3c, 0xb4, 0x79, 0x77, 0x3c,
  0xb4, 0x79, 0x77, 0x3c, 0xb4, 0x79, 0x77, 0x3c, 0x0d, 0xcf, 0x63, 0xbe,
  0xb4, 0x79, 0x77, 0x3c, 0xb4, 0x79, 0x77, 0x3c, 0xb4, 0x79, 0x77, 0x3c,
  0xb4, 0x79, 0x77, 0x3c, 0xb4, 0x79, 0x77, 0x3c, 0xb4, 0x79, 0x77, 0x3c,
  0x0d, 0xcf, 0x63, 0xbe, 0xb4, 0x79, 0x77, 0x3c, 0xb4, 0x79, 0x77, 0x3c,
  0xb4, 0x79, 0x77, 0x3c, 0xb4, 0x79, 0x77, 0x3c, 0xb4, 0x79, 0x77, 0x3c,
  0xb4, 0x79, 0x77, 0x3c, 0xb4, 0x79, 0x77, 0x3c, 0xb4, 0x79, 0x77, 0x3c,
  0xb4, 0x79, 0x77, 0x3c, 0xb4, 0x79, 0x77, 0x3c, 0xb4, 0x79, 0x77, 0x3c,
  0xb4, 0x79, 0x77, 0x3c, 0xb4, 0x79, 0x77, 0x3c, 0xb4, 0x79, 0x77, 0x3c,
  0xb4, 0x79, 0x77, 0x3c, 0x0d, 0xcf, 0x63, 0xbe, 0xb4, 0x79, 0x77, 0x3c,
  0x0d, 0xcf, 0x63, 0xbe, 0xb4, 0x79, 0x77, 0x3c, 0xb4, 0x79, 0x77, 0x3c,
  0xb4, 0x79, 0x77, 0x3c, 0xb4, 0x79, 0x77, 0x3c, 0x0d, 0xcf, 0x63, 0xbe,
  0xb4, 0x79, 0x77, 0x3c, 0xb4, 0x79, 0x77, 0x3c, 0xb4, 0x79, 0x77, 0x3c,
  0xb4, 0x79, 0x77, 0x3c, 0xb4, 0x79, 0x77, 0x3c, 0xb4, 0x79, 0x77, 0x3c,
  0xb4, 0x79, 0x77, 0x3c, 0x0d, 0xcf, 0x63, 0xbe, 0xb4, 0x79, 0x77, 0x3c,
  0xb4, 0x79, 0x77, 0x3c, 0xb4, 0x79, 0x77, 0x3c, 0xb4, 0x79, 0x77, 0x3c,
  0xb4, 0x79, 0x77, 0x3c, 0xb4, 0x79, 0x77, 0x3c, 0xb4, 0x79, 0x77, 0x3c,
  0xb4, 0x79, 0x77, 0x3c, 0xb4, 0x79, 0x77, 0x3c, 0xb4, 0x79, 0x77, 0x3c,
  0xb4, 0x79, 0x77, 0x3c, 0xb4, 0x79, 0x77, 0x3c, 0xb4, 0x79, 0x77, 0x3c,
  0xb4, 0x79, 0x77, 0x3c, 0x0d, 0xcf, 0x63, 0xbe, 0xb4, 0x79, 0x77, 0x3c,
  0xb4, 0x79, 0x77, 0x3c, 0xb4, 0x79, 0x77, 0x3c, 0x0d, 0xcf, 0x63, 0xbe,
  0xb4, 0x79, 0x77, 0x3c, 0xb4, 0x79, 0x77, 0x3c, 0xb4, 0x79, 0x77, 0x3c,
  0xb4, 0x79, 0x77, 0x3c, 0xb4, 0x79, 0x77, 0x3c, 0xb4, 0x79, 0x77, 0x3c,
  0xb4, 0x79, 0x77, 0x3c, 0xb4, 0x79, 0x77, 0x3c, 0xb4, 0x79, 0x77, 0x3c,
  0x0d, 0xcf, 0x63, 0xbe, 0xb4, 0x79, 0x77, 0x3c, 0xb4, 0x79, 0x77, 0x3c,
  0xb4, 0x79, 0x77, 0x3c, 0xb4, 0x79, 0x77, 0x3c, 0x0d, 0xcf, 0x63, 0xbe,
  0xb4, 0x79, 0x77, 0x3c, 0xb4, 0x79, 0x77, 0x3c, 0x0d, 0xcf, 0x63, 0xbe,
  0xb4, 0x79, 0x77, 0x3c, 0x0d, 0xcf, 0x63, 0xbe, 0xb4, 0x79, 0x77, 0x3c,
  0xb4, 0x79, 0x77, 0x3c, 0x0d, 0xcf, 0x63, 0xbe, 0xb4, 0x79, 0x77, 0x3c,
  0xb4, 0x79, 0x77, 0x3c, 0xb4, 0x79, 0x77, 0x3c, 0xb4, 0x79, 0x77, 0x3c,
  0xb4, 0x79, 0x77, 0x3c, 0x0d, 0xcf, 0x63, 0xbe, 0xb4, 0x79, 0x77, 0x3c,
  0xb4, 0x79, 0x77, 0x3c, 0xb4, 0x79, 0x77, 0x3c, 0xb4, 0x79, 0x77, 0x3c,
  0x0d, 0xcf, 0x63, 0xbe, 0x0d, 0xcf, 0x63, 0xbe, 0xb4, 0x79, 0x77, 0x3c,
  0xb4, 0x79, 0x77, 0x3c, 0x0d, 0xcf, 0x63, 0xbe, 0x0d, 0xcf, 0x63, 0xbe,
  0xb4, 0x79, 0x77, 0x3c, 0x0d, 0xcf, 0x63, 0xbe, 0xb4, 0x79, 0x77, 0x3c,
  0xb4, 0x79, 0x77, 0x3c, 0xb4, 0x79, 0x77, 0x3c, 0xb4, 0x79, 0x77, 0x3c,
  0xb4, 0x79, 0x77, 0x3c, 0xb4, 0x79, 0x77, 0x3c, 0xb4, 0x79, 0x77, 0x3c,
  0xb4, 0x79, 0x77, 0x3c, 0xb4, 0x79, 0x77, 0x3c, 0xb4, 0x79, 0x77, 0x3c,
  0xb4, 0x79, 0x77, 0x3c, 0xb4, 0x79, 0x77, 0x3c, 0xb4, 0x79, 0x77, 0x3c,
  0x0d, 0xcf, 0x63, 0xbe, 0xb4, 0x79, 0x77, 0x3c, 0xb4, 0x79, 0x77, 0x3c,
  0xb4, 0x79, 0x77, 0x3c, 0xb4, 0x79, 0x77, 0x3c, 0xb4, 0x79, 0x77, 0x3c,
  0xb4, 0x79, 0x77, 0x3c, 0xb4, 0x79, 0x77, 0x3c, 0x0d, 0xcf, 0x63, 0xbe,
  0xb4, 0x79, 0x77, 0x3c, 0xb4, 0x79, 0x77, 0x3c, 0xb4, 0x79, 0x77, 0x3c,
  0xb4, 0x79, 0x77, 0x3c, 0xb4, 0x79, 0x77, 0x3c, 0xb4, 0x79, 0x77, 0x3c,
  0xb4, 0x79, 0x77, 0x3c, 0x0d, 0xcf, 0x63, 0xbe, 0xb4, 0x79, 0x77, 0x3c,
  0xb4, 0x79, 0x77, 0x3c, 0xb4, 0x79, 0x77, 0x3c, 0xb4, 0x79, 0x77, 0x3c,
  0xb4, 0x79, 0x77, 0x3c, 0xb4, 0x79, 0x77, 0x3c, 0xb4, 0x79, 0x77, 0x3c,
  0xb4, 0x79, 0x77, 0x3c, 0xb4, 0x79, 0x77, 0x3c, 0xb4, 0x79, 0x77, 0x3c,
  0xb4, 0x79, 0x77, 0x3c, 0xb4, 0x79, 0x77, 0x3c, 0xb4, 0x79, 0x77, 0x3c,
  0xb4, 0x79, 0x77, 0x3c, 0xb4, 0x79, 0x77, 0x3c, 0xb4, 0x79, 0x77, 0x3c,
  0xb4, 0x79, 0x77, 0x3c, 0xb4, 0x79, 0x77, 0x3c, 0xb4, 0x79, 0x77, 0x3c,
  0xb4, 0x79, 0x77, 0x3c, 0xb4, 0x79, 0x77, 0x3c, 0xb4, 0x79, 0x77, 0x3c,
  0xb4, 0x79, 0x77, 0x3c, 0xb4, 0x79, 0x77, 0x3c, 0xb4, 0x79, 0x77, 0x3c,
  0xb4, 0x79, 0x77, 0x3c, 0xb4, 0x79, 0x77, 0x3c, 0xb4, 0x79, 0x77, 0x3c,
  0xb4, 0x79, 0x77, 0x3c, 0xb4, 0x79, 0x77, 0x3c, 0xb4, 0x79, 0x77, 0x3c,
  0xb4, 0x79, 0x77, 0x3c, 0xb4, 0x79, 0x77, 0x3c, 0xb4, 0x79, 0x77, 0x3c,
  0xb4, 0x79, 0x77, 0x3c, 0xb4, 0x79, 0x77, 0x3c, 0xb4, 0x79, 0x77, 0x3c,
  0xb4, 0x79, 0x77, 0x3c, 0xb4, 0x79, 0x77, 0x3c, 0xb4, 0x79, 0x77, 0x3c,
  0xb4, 0x79, 0x77, 0x3c, 0xb4, 0x79, 0x77, 0x3c, 0xb4, 0x79, 0x77, 0x3c,
  0xb4, 0x79, 0x77, 0x3c, 0xb4, 0x79, 0x77, 0x3c, 0xb4, 0x79, 0x77, 0x3c,
  0xb4, 0x79, 0x77, 0x3c, 0xb4, 0x79, 0x77, 0x3c, 0xb4, 0x79, 0x77, 0x3c,
  0xb4, 0x79, 0x77, 0x3c, 0x30, 0x35, 0x82, 0x3e, 0xb4, 0x79, 0x77, 0x3c,
  0xb4, 0x79, 0x77, 0x3c, 0xb4, 0x79, 0x77, 0x3c, 0xb4, 0x79, 0x77, 0x3c,
  0xb4, 0x79, 0x77, 0x3c, 0xb4, 0x79, 0x77, 0x3c, 0xb4, 0x79, 0x77, 0x3c,
  0xb4, 0x79, 0x77, 0x3c, 0xb4, 0x79, 0x77, 0x3c, 0xb4, 0x79, 0x77, 0x3c,
  0xb4, 0x79, 0x77, 0x3c, 0xb4, 0x79, 0x77, 0x3c, 0xb4, 0x79, 0x77, 0x3c,
  0x0d, 0xcf, 0x63, 0xbe, 0xb4, 0x79, 0x77, 0x3c, 0xb4, 0x79, 0x77, 0x3c,
  0xb4, 0x79, 0x77, 0x3c, 0xb4, 0x79, 0x77, 0x3c, 0x0d, 0xcf, 0x63, 0xbe,
  0xb4, 0x79, 0x77, 0x3c, 0xb4, 0x79, 0x77, 0x3c, 0xb4, 0x79, 0x77, 0x3c,
  0xb4, 0x79, 0x77, 0x3c, 0xb4, 0x79, 0x77, 0x3c, 0xb4, 0x79, 0x77, 0x3c,
  0xb4, 0x79, 0x77, 0x3c, 0xb4, 0x79, 0x77, 0x3c, 0xb4, 0x79, 0x77, 0x3c,
  0xb4, 0x79, 0x77, 0x3c, 0x30, 0x35, 0x82, 0x3e, 0xb4, 0x79, 0x77, 0x3c,
  0x0d, 0xcf, 0x63, 0xbe, 0xb4, 0x79, 0x77, 0x3c, 0xb4, 0x79, 0x77, 0x3c,
  0xb4, 0x79, 0x77, 0x3c, 0xb4, 0x79, 0x77, 0x3c, 0xb4, 0x79, 0x77, 0x3c,
  0xb4, 0x79, 0x77, 0x3c, 0xb4, 0x79, 0x77, 0x3c, 0xb4, 0x79, 0x77, 0x3c,
  0xb4, 0x79, 0x77, 0x3c, 0xb4, 0x79, 0x77, 0x3c, 0xb4, 0x79, 0x77, 0x3c,
  0x0d, 0xcf, 0x63, 0xbe, 0xb4, 0x79, 0x77, 0x3c, 0x0d, 0xcf, 0x63, 0xbe,
  0xb4, 0x79, 0x77, 0x3c, 0xb4, 0x79, 0x77, 0x3c, 0xb4, 0x79, 0x77, 0x3c,
  0xb4, 0x79, 0x77, 0x3c, 0xb4, 0x79, 0x77, 0x3c, 0xb4, 0x79, 0x77, 0x3c,
  0xb4, 0x79, 0x77, 0x3c, 0xb4, 0x79, 0x77, 0x3c, 0xb4, 0x79, 0x77, 0x3c,
  0x0d, 0xcf, 0x63, 0xbe, 0x0d, 0xcf, 0x63, 0xbe, 0xb4, 0x79, 0x77, 0x3c,
  0xb4, 0x79, 0x77, 0x3c, 0xb4, 0x79, 0x77, 0x3c, 0xb4, 0x79, 0x77, 0x3c,
  0xb4, 0x79, 0x77, 0x3c, 0xb4, 0x79, 0x77, 0x3c, 0xb4, 0x79, 0x77, 0x3c,
  0xb4, 0x79, 0x77, 0x3c, 0xb4, 0x79, 0x77, 0x3c, 0xb4, 0x79, 0x77, 0x3c,
  0xb4, 0x79, 0x77, 0x3c, 0x0d, 0xcf, 0x63, 0xbe, 0xb4, 0x79, 0x77, 0x3c,
  0x0d, 0xcf, 0x63, 0xbe, 0xb4, 0x79, 0x77, 0x3c, 0xb4, 0x79, 0x77, 0x3c,
  0xb4, 0x79, 0x77, 0x3c, 0xb4, 0x79, 0x77, 0x3c, 0xb4, 0x79, 0x77, 0x3c,
  0xb4, 0x79, 0x77, 0x3c, 0xb4, 0x79, 0x77, 0x3c, 0xb4, 0x79, 0x77, 0x3c,
  0xb4, 0x79, 0x77, 0x3c, 0x0d, 0xcf, 0x63, 0xbe, 0x0d, 0xcf, 0x63, 0xbe,
  0xb4, 0x79, 0x77, 0x3c, 0xb4, 0x79, 0x77, 0x3c, 0xb4, 0x79, 0x77, 0x3c,
  0xb4, 0x79, 0x77, 0x3c, 0xb4, 0x79, 0x77, 0x3c, 0xb4, 0x79, 0x77, 0x3c,
  0xb4, 0x79, 0x77, 0x3c, 0xb4, 0x79, 0x77, 0x3c, 0xb4, 0x79, 0x77, 0x3c,
  0xb4, 0x79, 0x77, 0x3c, 0xb4, 0x79, 0x77, 0x3c, 0xb4, 0x79, 0x77, 0x3c,
  0xb4, 0x79, 0x77, 0x3c, 0x0d, 0xcf, 0x63, 0xbe, 0xb4, 0x79, 0x77, 0x3c,
  0xb4, 0x79, 0x77, 0x3c, 0xb4, 0x79, 0x77, 0x3c, 0xb4, 0x79, 0x77, 0x3c,
  0xb4, 0x79, 0x77, 0x3c, 0x0d, 0xcf, 0x63, 0xbe, 0xb4, 0x79, 0x77, 0x3c,
  0xb4, 0x79, 0x77, 0x3c, 0x0d, 0xcf, 0x63, 0xbe, 0xb4, 0x79, 0x77, 0x3c,
  0xb4, 0x79, 0x77, 0x3c, 0xb4, 0x79, 0x77, 0x3c, 0xb4, 0x79, 0x77, 0x3c,
  0xb4, 0x79, 0x77, 0x3c, 0xb4, 0x79, 0x77, 0x3c, 0xb4, 0x79, 0x77, 0x3c,
  0xb4, 0x79, 0x77, 0x3c, 0xb4, 0x79, 0x77, 0x3c, 0xb4, 0x79, 0x77, 0x3c,
  0x0d, 0xcf, 0x63, 0xbe, 0xb4, 0x79, 0x77, 0x3c, 0xb4, 0x79, 0x77, 0x3c,
  0x0d, 0xcf, 0x63, 0xbe, 0xb4, 0x79, 0x77, 0x3c, 0xb4, 0x79, 0x77, 0x3c,
  0xb4, 0x79, 0x77, 0x3c, 0xb4, 0x79, 0x77, 0x3c, 0xb4, 0x79, 0x77, 0x3c,
  0xb4, 0x79, 0x77, 0x3c, 0xb4, 0x79, 0x77, 0x3c, 0xb4, 0x79, 0x77, 0x3c,
  0xb4, 0x79, 0x77, 0x3c, 0xb4, 0x79, 0x77, 0x3c, 0xb4, 0x79, 0x77, 0x3c,
  0xb4, 0x79, 0x77, 0x3c, 0xb4, 0x79, 0x77, 0x3c, 0xb4, 0x79, 0x77, 0x3c,
  0xb4, 0x79, 0x77, 0x3c, 0xb4, 0x79, 0x77, 0x3c, 0xb4, 0x79, 0x77, 0x3c,
  0x0d, 0xcf, 0x63, 0xbe, 0xb4, 0x79, 0x77, 0x3c, 0x0d, 0xcf, 0x63, 0xbe,
  0xb4, 0x79, 0x77, 0x3c, 0xb4, 0x79, 0x77, 0x3c, 0xb4, 0x79, 0x77, 0x3c,
  0xb4, 0x79, 0x77, 0x3c, 0xb4, 0x79, 0x77, 0x3c, 0xb4, 0x79, 0x77, 0x3c,
  0xb4, 0x79, 0x77, 0x3c, 0xb4, 0x79, 0x77, 0x3c, 0xb4, 0x79, 0x77, 0x3c,
  0xb4, 0x79, 0x77, 0x3c, 0xb4, 0x79, 0x77, 0x3c, 0xb4, 0x79, 0x77, 0x3c,
  0xb4, 0x79, 0x77, 0x3c, 0xb4, 0x79, 0x77, 0x3c, 0x0d, 0xcf, 0x63, 0xbe,
  0xb4, 0x79, 0x77, 0x3c, 0x0d, 0xcf, 0x63, 0xbe, 0xb4, 0x79, 0x77, 0x3c,
  0xb4, 0x79, 0x77, 0x3c, 0x0d, 0xcf, 0x63, 0xbe, 0xb4, 0x79, 0x77, 0x3c,
  0xb4, 0x79, 0x77, 0x3c, 0x0d, 0xcf, 0x63, 0xbe, 0xb4, 0x79, 0x77, 0x3c,
  0xb4, 0x79, 0x77, 0x3c, 0xb4, 0x79, 0x77, 0x3c, 0xb4, 0x79, 0x77, 0x3c,
  0xb4, 0x79, 0x77, 0x3c, 0xb4, 0x79, 0x77, 0x3c, 0xb4, 0x79, 0x77, 0x3c,
  0xb4, 0x79, 0x77, 0x3c, 0x0d, 0xcf, 0x63, 0xbe, 0xb4, 0x79, 0x77, 0x3c,
  0xb4, 0x79, 0x77, 0x3c, 0x0d, 0xcf, 0x63, 0xbe, 0xb4, 0x79, 0x77, 0x3c,
  0xb4, 0x79, 0x77, 0x3c, 0xb4, 0x79, 0x77, 0x3c, 0xb4, 0x79, 0x77, 0x3c,
  0xb4, 0x79, 0x77, 0x3c, 0xb4, 0x79, 0x77, 0x3c, 0xb4, 0x79, 0x77, 0x3c,
  0xb4, 0x79, 0x77, 0x3c, 0xb4, 0x79, 0x77, 0x3c, 0xb4, 0x79, 0x77, 0x3c,
  0xb4, 0x79, 0x77, 0x3c, 0xb4, 0x79, 0x77, 0x3c, 0xb4, 0x79, 0x77, 0x3c,
  0xb4, 0x79, 0x77, 0x3c, 0x0d, 0xcf, 0x63, 0xbe, 0xb4, 0x79, 0x77, 0x3c,
  0xb4, 0x79, 0x77, 0x3c, 0xb4, 0x79, 0x77, 0x3c, 0xb4, 0x79, 0x77, 0x3c,
  0xb4, 0x79, 0x77, 0x3c, 0xb4, 0x79, 0x77, 0x3c, 0xb4, 0x79, 0x77, 0x3c,
  0xb4, 0x79, 0x77, 0x3c, 0xb4, 0x79, 0x77, 0x3c, 0xb4, 0x79, 0x77, 0x3c,
  0x0d, 0xcf, 0x63, 0xbe, 0xb4, 0x79, 0x77, 0x3c, 0xb4, 0x79, 0x77, 0x3c,
  0xb4, 0x79, 0x77, 0x3c, 0xb4, 0x79, 0x77, 0x3c, 0xb4, 0x79, 0x77, 0x3c,
  0xb4, 0x79, 0x77, 0x3c, 0xb4, 0x79, 0x77, 0x3c, 0xb4, 0x79, 0x77, 0x3c,
  0xb4, 0x79, 0x77, 0x3c, 0xb4, 0x79, 0x77, 0x3c, 0xb4, 0x79, 0x77, 0x3c,
  0xb4, 0x79, 0x77, 0x3c, 0x0d, 0xcf, 0x63, 0xbe, 0xb4, 0x79, 0x77, 0x3c,
  0xb4, 0x79, 0x77, 0x3c, 0xb4, 0x79, 0x77, 0x3c, 0xb4, 0x79, 0x77, 0x3c,
  0xb4, 0x79, 0x77, 0x3c, 0xb4, 0x79, 0x77, 0x3c, 0xb4, 0x79, 0x77, 0x3c,
  0xb4, 0x79, 0x77, 0x3c, 0xb4, 0x79, 0x77, 0x3c, 0x0d, 0xcf, 0x63, 0xbe,
  0xb4, 0x79, 0x77, 0x3c, 0xb4, 0x79, 0x77, 0x3c, 0x0d, 0xcf, 0x63, 0xbe,
  0xb4, 0x79, 0x77, 0x3c, 0x0d, 0xcf, 0x63, 0xbe, 0xb4, 0x79, 0x77, 0x3c,
  0xb4, 0x79, 0x77, 0x3c, 0xb4, 0x79, 0x77, 0x3c, 0x0d, 0xcf, 0x63, 0xbe,
  0xb4, 0x79, 0x77, 0x3c, 0xb4, 0x79, 0x77, 0x3c, 0xb4, 0x79, 0x77, 0x3c,
  0xb4, 0x79, 0x77, 0x3c, 0xb4, 0x79, 0x77, 0x3c, 0xb4, 0x79, 0x77, 0x3c,
  0x0d, 0xcf, 0x63, 0xbe, 0x0d, 0xcf, 0x63, 0xbe, 0xb4, 0x79, 0x77, 0x3c,
  0xb4, 0x79, 0x77, 0x3c, 0xb4, 0x79, 0x77, 0x3c, 0xb4, 0x79, 0x77, 0x3c,
  0xb4, 0x79, 0x77, 0x3c, 0xb4, 0x79, 0x77, 0x3c, 0x0d, 0xcf, 0x63, 0xbe,
  0xb4, 0x79, 0x77, 0x3c, 0xb4, 0x79, 0x77, 0x3c, 0xb4, 0x79, 0x77, 0x3c,
  0xb4, 0x79, 0x77, 0x3c, 0xb4, 0x79, 0x77, 0x3c, 0xb4, 0x79, 0x77, 0x3c,
  0x0d, 0xcf, 0x63, 0xbe, 0xb4, 0x79, 0x77, 0x3c, 0xb4, 0x79, 0x77, 0x3c,
  0xb4, 0x79, 0x77, 0x3c, 0x0d, 0xcf, 0x63, 0xbe, 0x0d, 0xcf, 0x63, 0xbe,
  0xb4, 0x79, 0x77, 0x3c, 0xb4, 0x79, 0x77, 0x3c, 0xb4, 0x79, 0x77, 0x3c,
  0xb4, 0x79, 0x77, 0x3c, 0xb4, 0x79, 0x77, 0x3c, 0xb4, 0x79, 0x77, 0x3c,
  0xb4, 0x79, 0x77, 0x3c, 0xb4, 0x79, 0x77, 0x3c, 0xb4, 0x79, 0x77, 0x3c,
  0xb4, 0x79, 0x77, 0x3c, 0xb4, 0x79, 0x77, 0x3c, 0xb4, 0x79, 0x77, 0x3c,
  0x0d, 0xcf, 0x63, 0xbe, 0xb4, 0x79, 0x77, 0x3c, 0xb4, 0x79, 0x77, 0x3c,
  0xb4, 0x79, 0x77, 0x3c, 0xb4, 0x79, 0x77, 0x3c, 0xb4, 0x79, 0x77, 0x3c,
  0x0d, 0xcf, 0x63, 0xbe, 0xb4, 0x79, 0x77, 0x3c, 0xb4, 0x79, 0x77, 0x3c,
  0x0d, 0xcf, 0x63, 0xbe, 0xb4, 0x79, 0x77, 0x3c, 0xb4, 0x79, 0x77, 0x3c,
  0xb4, 0x79, 0x77, 0x3c, 0xb4, 0x79, 0x77, 0x3c, 0xb4, 0x79, 0x77, 0x3c,
  0x0d, 0xcf, 0x63, 0xbe, 0xb4, 0x79, 0x77, 0x3c, 0xb4, 0x79, 0x77, 0x3c,
  0xb4, 0x79, 0x77, 0x3c, 0xb4, 0x79, 0x77, 0x3c, 0x0d, 0xcf, 0x63, 0xbe,
  0xb4, 0x79, 0x77, 0x3c, 0xb4, 0x79, 0x77, 0x3c, 0xb4, 0x79, 0x77, 0x3c,
  0xb4, 0x79, 0x77, 0x3c, 0xb4, 0x79, 0x77, 0x3c, 0xb4, 0x79, 0x77, 0x3c,
  0xb4, 0x79, 0x77, 0x3c, 0xb4, 0x79, 0x77, 0x3c, 0xb4, 0x79, 0x77, 0x3c,
  0xb4, 0x79, 0x77, 0x3c, 0xb4, 0x79, 0x77, 0x3c, 0xb4, 0x79, 0x77, 0x3c,
  0xb4, 0x79, 0x77, 0x3c, 0xb4, 0x79, 0x77, 0x3c, 0xb4, 0x79, 0x77, 0x3c,
  0xb4, 0x79, 0x77, 0x3c, 0xb4, 0x79, 0x77, 0x3c, 0xb4, 0x79, 0x77, 0x3c,
  0xb4, 0x79, 0x77, 0x3c, 0x0d, 0xcf, 0x63, 0xbe, 0xb4, 0x79, 0x77, 0x3c,
  0xb4, 0x79, 0x77, 0x3c, 0xb4, 0x79, 0x77, 0x3c, 0xb4, 0x79, 0x77, 0x3c,
  0xb4, 0x79, 0x77, 0x3c, 0xb4, 0x79, 0x77, 0x3c, 0xb4, 0x79, 0x77, 0x3c,
  0xb4, 0x79, 0x77, 0x3c, 0xb4, 0x79, 0x77, 0x3c, 0xb4, 0x79, 0x77, 0x3c,
  0xb4, 0x79, 0x77, 0x3c, 0xb4, 0x79, 0x77, 0x3c, 0x0d, 0xcf, 0x63, 0xbe,
  0x0d, 0xcf, 0x63, 0xbe, 0xb4, 0x79, 0x77, 0x3c, 0x0d, 0xcf, 0x63, 0xbe,
  0xb4, 0x79, 0x77, 0x3c, 0xb4, 0x79, 0x77, 0x3c, 0xb4, 0x79, 0x77, 0x3c,
  0xb4, 0x79, 0x77, 0x3c, 0xb4, 0x79, 0x77, 0x3c, 0xb4, 0x79, 0x77, 0x3c,
  0x0d, 0xcf, 0x63, 0xbe, 0xb4, 0x79, 0x77, 0x3c, 0xb4, 0x79, 0x77, 0x3c,
  0x0d, 0xcf, 0x63, 0xbe, 0xb4, 0x79, 0x77, 0x3c, 0xb4, 0x79, 0x77, 0x3c,
  0xb4, 0x79, 0x77, 0x3c, 0xb4, 0x79, 0x77, 0x3c, 0x0d, 0xcf, 0x63, 0xbe,
  0x0d, 0xcf, 0x63, 0xbe, 0x0d, 0xcf, 0x63, 0xbe, 0x0d, 0xcf, 0x63, 0xbe,
  0xb4, 0x79, 0x77, 0x3c, 0x0d, 0xcf, 0x63, 0xbe, 0xb4, 0x79, 0x77, 0x3c,
  0xb4, 0x79, 0x77, 0x3c, 0xb4, 0x79, 0x77, 0x3c, 0xb4, 0x79, 0x77, 0x3c,
  0x0d, 0xcf, 0x63, 0xbe, 0xb4, 0x79, 0x77, 0x3c, 0xb4, 0x79, 0x77, 0x3c,
  0xb4, 0x79, 0x77, 0x3c, 0xb4, 0x79, 0x77, 0x3c, 0xb4, 0x79, 0x77, 0x3c,
  0xb4, 0x79, 0x77, 0x3c, 0xb4, 0x79, 0x77, 0x3c, 0xb4, 0x79, 0x77, 0x3c,
  0xb4, 0x79, 0x77, 0x3c, 0xb4, 0x79, 0x77, 0x3c, 0xb4, 0x79, 0x77, 0x3c,
  0xb4, 0x79, 0x77, 0x3c, 0xb4, 0x79, 0x77, 0x3c, 0xb4, 0x79, 0x77, 0x3c,
  0xb4, 0x79, 0x77, 0x3c, 0xb4, 0x79, 0x77, 0x3c, 0x0d, 0xcf, 0x63, 0xbe,
  0xb4, 0x79, 0x77, 0x3c, 0xb4, 0x79, 0x77, 0x3c, 0xb4, 0x79, 0x77, 0x3c,
  0xb4, 0x79, 0x77, 0x3c, 0xb4, 0x79, 0x77, 0x3c, 0xb4, 0x79, 0x77, 0x3c,
  0xb4, 0x79, 0x77, 0x3c, 0x0d, 0xcf, 0x63, 0xbe, 0x0d, 0xcf, 0x63, 0xbe,
  0xb4, 0x79, 0x77, 0x3c, 0x0d, 0xcf, 0x63, 0xbe, 0xb4, 0x79, 0x77, 0x3c,
  0xb4, 0x79, 0x77, 0x3c, 0xb4, 0x79, 0x77, 0x3c, 0xb4, 0x79, 0x77, 0x3c,
  0xb4, 0x79, 0x77, 0x3c, 0xb4, 0x79, 0x77, 0x3c, 0xb4, 0x79, 0x77, 0x3c,
  0xb4, 0x79, 0x77, 0x3c, 0x0d, 0xcf, 0x63, 0xbe, 0xb4, 0x79, 0x77, 0x3c,
  0xb4, 0x79, 0x77, 0x3c, 0xb4, 0x79, 0x77, 0x3c, 0xb4, 0x79, 0x77, 0x3c,
  0x0d, 0xcf, 0x63, 0xbe, 0xb4, 0x79, 0x77, 0x3c, 0xb4, 0x79, 0x77, 0x3c,
  0xb4, 0x79, 0x77, 0x3c, 0xb4, 0x79, 0x77, 0x3c, 0xb4, 0x79, 0x77, 0x3c,
  0xb4, 0x79, 0x77, 0x3c, 0xb4, 0x79, 0x77, 0x3c, 0xb4, 0x79, 0x77, 0x3c,
  0x0d, 0xcf, 0x63, 0xbe, 0xb4, 0x79, 0x77, 0x3c, 0xb4, 0x79, 0x77, 0x3c,
  0xb4, 0x79, 0x77, 0x3c, 0xb4, 0x79, 0x77, 0x3c, 0xb4, 0x79, 0x77, 0x3c,
  0xb4, 0x79, 0x77, 0x3c, 0xb4, 0x79, 0x77, 0x3c, 0xb4, 0x79, 0x77, 0x3c,
  0xb4, 0x79, 0x77, 0x3c, 0xb4, 0x79, 0x77, 0x3c, 0xb4, 0x79, 0x77, 0x3c,
  0xb4, 0x79, 0x77, 0x3c, 0xb4, 0x79, 0x77, 0x3c, 0xb4, 0x79, 0x77, 0x3c,
  0xb4, 0x79, 0x77, 0x3c, 0xb4, 0x79, 0x77, 0x3c, 0xb4, 0x79, 0x77, 0x3c,
  0xb4, 0x79, 0x77, 0x3c, 0xb4, 0x79, 0x77, 0x3c, 0xb4, 0x79, 0x77, 0x3c,
  0xb4, 0x79, 0x77, 0x3c, 0xb4, 0x79, 0x77, 0x3c, 0xb4, 0x79, 0x77, 0x3c,
  0xb4, 0x79, 0x77, 0x3c, 0xb4, 0x79, 0x77, 0x3c, 0xb4, 0x79, 0x77, 0x3c,
  0xb4, 0x79, 0x77, 0x3c, 0xb4, 0x79, 0x77, 0x3c, 0xb4, 0x79, 0x77, 0x3c,
  0xb4, 0x79, 0x77, 0x3c, 0xb4, 0x79, 0x77, 0x3c, 0xb4, 0x79, 0x77, 0x3c,
  0xb4, 0x79, 0x77, 0x3c, 0xb4, 0x79, 0x77, 0x3c, 0xb4, 0x79, 0x77, 0x3c,
  0xb4, 0x79, 0x77, 0x3c, 0xb4, 0x79, 0x77, 0x3c, 0xb4, 0x79, 0x77, 0x3c,
  0xb4, 0x79, 0x77, 0x3c, 0xb4, 0x79, 0x77, 0x3c, 0xb4, 0x79, 0x77, 0x3c,
  0xb4, 0x79, 0x77, 0x3c, 0xb4, 0x79, 0x77, 0x3c, 0xb4, 0x79, 0x77, 0x3c,
  0xb4, 0x79, 0x77, 0x3c, 0xb4, 0x79, 0x77, 0x3c, 0xb4, 0x79, 0x77, 0x3c,
  0xb4, 0x79, 0x77, 0x3c, 0x0d, 0xcf, 0x63, 0xbe, 0xb4, 0x79, 0x77, 0x3c,
  0xb4, 0x79, 0x77, 0x3c, 0xb4, 0x79, 0x77, 0x3c, 0xb4, 0x79, 0x77, 0x3c,
  0xb4, 0x79, 0x77, 0x3c, 0xb4, 0x79, 0x77, 0x3c, 0xb4, 0x79, 0x77, 0x3c,
  0xb4, 0x79, 0x77, 0x3c, 0xb4, 0x79, 0x77, 0x3c, 0xb4, 0x79, 0x77, 0x3c,
  0x0d, 0xcf, 0x63, 0xbe, 0xb4, 0x79, 0x77, 0x3c, 0xb4, 0x79, 0x77, 0x3c,
  0xb4, 0x79, 0x77, 0x3c, 0xb4, 0x79, 0x77, 0x3c, 0xb4, 0x79, 0x77, 0x3c,
  0xb4, 0x79, 0x77, 0x3c, 0xb4, 0x79, 0x77, 0x3c, 0xb4, 0x79, 0x77, 0x3c,
  0xb4, 0x79, 0x77, 0x3c, 0x0d, 0xcf, 0x63, 0xbe, 0x0d, 0xcf, 0x63, 0xbe,
  0xb4, 0x79, 0x77, 0x3c, 0x0d, 0xcf, 0x63, 0xbe, 0x0d, 0xcf, 0x63, 0xbe,
  0xb4, 0x79, 0x77, 0x3c, 0xb4, 0x79, 0x77, 0x3c, 0xb4, 0x79, 0x77, 0x3c,
  0xb4, 0x79, 0x77, 0x3c, 0xb4, 0x79, 0x77, 0x3c, 0xb4, 0x79, 0x77, 0x3c,
  0xb4, 0x79, 0x77, 0x3c, 0xb4, 0x79, 0x77, 0x3c, 0x0d, 0xcf, 0x63, 0xbe,
  0xb4, 0x79, 0x77, 0x3c, 0xb4, 0x79, 0x77, 0x3c, 0xb4, 0x79, 0x77, 0x3c,
  0xb4, 0x79, 0x77, 0x3c, 0xb4, 0x79, 0x77, 0x3c, 0xb4, 0x79, 0x77, 0x3c,
  0xb4, 0x79, 0x77, 0x3c, 0xb4, 0x79, 0x77, 0x3c, 0x0d, 0xcf, 0x63, 0xbe,
  0xb4, 0x79, 0x77, 0x3c, 0xb4, 0x79, 0x77, 0x3c, 0xb4, 0x79, 0x77, 0x3c,
  0xb4, 0x79, 0x77, 0x3c, 0xb4, 0x79, 0x77, 0x3c, 0x0d, 0xcf, 0x63, 0xbe,
  0xb4, 0x79, 0x77, 0x3c, 0xb4, 0x79, 0x77, 0x3c, 0xb4, 0x79, 0x77, 0x3c,
  0xb4, 0x79, 0x77, 0x3c, 0xb4, 0x79, 0x77, 0x3c, 0xb4, 0x79, 0x77, 0x3c,
  0xb4, 0x79, 0x77, 0x3c, 0xb4, 0x79, 0x77, 0x3c, 0xb4, 0x79, 0x77, 0x3c,
  0x0d, 0xcf, 0x63, 0xbe, 0xb4, 0x79, 0x77, 0x3c, 0xb4, 0x79, 0x77, 0x3c,
  0xb4, 0x79, 0x77, 0x3c, 0xb4, 0x79, 0x77, 0x3c, 0xb4, 0x79, 0x77, 0x3c,
  0xb4, 0x79, 0x77, 0x3c, 0xb4, 0x79, 0x77, 0x3c, 0xb4, 0x79, 0x77, 0x3c,
  0xb4, 0x79, 0x77, 0x3c, 0xb4, 0x79, 0x77, 0x3c, 0xb4, 0x79, 0x77, 0x3c,
  0xb4, 0x79, 0x77, 0x3c, 0xb4, 0x79, 0x77, 0x3c, 0xb4, 0x79, 0x77, 0x3c,
  0xb4, 0x79, 0x77, 0x3c, 0xb4, 0x79, 0x77, 0x3c, 0xb4, 0x79, 0x77, 0x3c,
  0xb4, 0x79, 0x77, 0x3c, 0xb4, 0x79, 0x77, 0x3c, 0xb4, 0x79, 0x77, 0x3c,
  0xb4, 0x79, 0x77, 0x3c, 0xb4, 0x79, 0x77, 0x3c, 0xb4, 0x79, 0x77, 0x3c,
  0xb4, 0x79, 0x77, 0x3c, 0xb4, 0x79, 0x77, 0x3c, 0x0d, 0xcf, 0x63, 0xbe,
  0xb4, 0x79, 0x77, 0x3c, 0xb4, 0x79, 0x77, 0x3c, 0xb4, 0x79, 0x77, 0x3c,
  0xb4, 0x79, 0x77, 0x3c, 0xb4, 0x79, 0x77, 0x3c, 0xb4, 0x79, 0x77, 0x3c,
  0xb4, 0x79, 0x77, 0x3c, 0xb4, 0x79, 0x77, 0x3c, 0xb4, 0x79, 0x77, 0x3c,
  0xb4, 0x79, 0x77, 0x3c, 0xb4, 0x79, 0x77, 0x3c, 0xb4, 0x79, 0x77, 0x3c,
  0xb4, 0x79, 0x77, 0x3c, 0xb4, 0x79, 0x77, 0x3c, 0xb4, 0x79, 0x77, 0x3c,
  0xb4, 0x79, 0x77, 0x3c, 0xb4, 0x79, 0x77, 0x3c, 0xb4, 0x79, 0x77, 0x3c,
  0xb4, 0x79, 0x77, 0x3c, 0x0d, 0xcf, 0x63, 0xbe, 0xb4, 0x79, 0x77, 0x3c,
  0xb4, 0x79, 0x77, 0x3c, 0xb4, 0x79, 0x77, 0x3c, 0xb4, 0x79, 0x77, 0x3c,
  0xb4, 0x79, 0x77, 0x3c, 0xb4, 0x79, 0x77, 0x3c, 0xb4, 0x79, 0x77, 0x3c,
  0xb4, 0x79, 0x77, 0x3c, 0xb4, 0x79, 0x77, 0x3c, 0x0d, 0xcf, 0x63, 0xbe,
  0xb4, 0x79, 0x77, 0x3c, 0xb4, 0x79, 0x77, 0x3c, 0xb4, 0x79, 0x77, 0x3c,
  0xb4, 0x79, 0x77, 0x3c, 0xb4, 0x79, 0x77, 0x3c, 0xb4, 0x79, 0x77, 0x3c,
  0xb4, 0x79, 0x77, 0x3c, 0x0d, 0xcf, 0x63, 0xbe, 0xb4, 0x79, 0x77, 0x3c,
  0x0d, 0xcf, 0x63, 0xbe, 0xb4, 0x79, 0x77, 0x3c, 0xb4, 0x79, 0x77, 0x3c,
  0xb4, 0x79, 0x77, 0x3c, 0xb4, 0x79, 0x77, 0x3c, 0xb4, 0x79, 0x77, 0x3c,
  0xb4, 0x79, 0x77, 0x3c, 0x0d, 0xcf, 0x63, 0xbe, 0xb4, 0x79, 0x77, 0x3c,
  0xb4, 0x79, 0x77, 0x3c, 0xb4, 0x79, 0x77, 0x3c, 0xb4, 0x79, 0x77, 0x3c,
  0x0d, 0xcf, 0x63, 0xbe, 0xb4, 0x79, 0x77, 0x3c, 0xb4, 0x79, 0x77, 0x3c,
  0xb4, 0x79, 0x77, 0x3c, 0xb4, 0x79, 0x77, 0x3c, 0xb4, 0x79, 0x77, 0x3c,
  0xb4, 0x79, 0x77, 0x3c, 0xb4, 0x79, 0x77, 0x3c, 0xb4, 0x79, 0x77, 0x3c,
  0xb4, 0x79, 0x77, 0x3c, 0xb4, 0x79, 0x77, 0x3c, 0xb4, 0x79, 0x77, 0x3c,
  0xb4, 0x79, 0x77, 0x3c, 0xb4, 0x79, 0x77, 0x3c, 0xb4, 0x79, 0x77, 0x3c,
  0xb4, 0x79, 0x77, 0x3c, 0xb4, 0x79, 0x77, 0x3c, 0x0d, 0xcf, 0x63, 0xbe,
  0xb4, 0x79, 0x77, 0x3c, 0xb4, 0x79, 0x77, 0x3c, 0x0d, 0xcf, 0x63, 0xbe,
  0xb4, 0x79, 0x77, 0x3c, 0xb4, 0x79, 0x77, 0x3c, 0xb4, 0x79, 0x77, 0x3c,
  0xb4, 0x79, 0x77, 0x3c, 0xb4, 0x79, 0x77, 0x3c, 0xb4, 0x79, 0x77, 0x3c,
  0xb4, 0x79, 0x77, 0x3c, 0xb4, 0x79, 0x77, 0x3c, 0xb4, 0x79, 0x77, 0x3c,
  0xb4, 0x79, 0x77, 0x3c, 0xb4, 0x79, 0x77, 0x3c, 0xb4, 0x79, 0x77, 0x3c,
  0xb4, 0x79, 0x77, 0x3c, 0xb4, 0x79, 0x77, 0x3c, 0xb4, 0x79, 0x77, 0x3c,
  0xb4, 0x79, 0x77, 0x3c, 0xb4, 0x79, 0x77, 0x3c, 0xb4, 0x79, 0x77, 0x3c,
  0xb4, 0x79, 0x77, 0x3c, 0xb4, 0x79, 0x77, 0x3c, 0xb4, 0x79, 0x77, 0x3c,
  0xb4, 0x79, 0x77, 0x3c, 0xb4, 0x79, 0x77, 0x3c, 0xb4, 0x79, 0x77, 0x3c,
  0xb4, 0x79, 0x77, 0x3c, 0xb4, 0x79, 0x77, 0x3c, 0xb4, 0x79, 0x77, 0x3c,
  0xb4, 0x79, 0x77, 0x3c, 0xb4, 0x79, 0x77, 0x3c, 0xb4, 0x79, 0x77, 0x3c,
  0xb4, 0x79, 0x77, 0x3c, 0xb4, 0x79, 0x77, 0x3c, 0xb4, 0x79, 0x77, 0x3c,
  0xb4, 0x79, 0x77, 0x3c, 0x0d, 0xcf, 0x63, 0xbe, 0xb4, 0x79, 0x77, 0x3c,
  0xb4, 0x79, 0x77, 0x3c, 0x0d, 0xcf, 0x63, 0xbe, 0xb4, 0x79, 0x77, 0x3c,
  0xb4, 0x79, 0x77, 0x3c, 0xb4, 0x79, 0x77, 0x3c, 0xb4, 0x79, 0x77, 0x3c,
  0xb4, 0x79, 0x77, 0x3c, 0xb4, 0x79, 0x77, 0x3c, 0x0d, 0xcf, 0x63, 0xbe,
  0xb4, 0x79, 0x77, 0x3c, 0xb4, 0x79, 0x77, 0x3c, 0xb4, 0x79, 0x77, 0x3c,
  0xb4, 0x79, 0x77, 0x3c, 0xb4, 0x79, 0x77, 0x3c, 0xb4, 0x79, 0x77, 0x3c,
  0xb4, 0x79, 0x77, 0x3c, 0xb4, 0x79, 0x77, 0x3c, 0x0d, 0xcf, 0x63, 0xbe,
  0xb4, 0x79, 0x77, 0x3c, 0xb4, 0x79, 0x77, 0x3c, 0xb4, 0x79, 0x77, 0x3c,
  0xb4, 0x79, 0x77, 0x3c, 0xb4, 0x79, 0x77, 0x3c, 0xb4, 0x79, 0x77, 0x3c,
  0xb4, 0x79, 0x77, 0x3c, 0xb4, 0x79, 0x77, 0x3c, 0xb4, 0x79, 0x77, 0x3c,
  0xb4, 0x79, 0x77, 0x3c, 0xb4, 0x79, 0x77, 0x3c, 0xb4, 0x79, 0x77, 0x3c,
  0xb4, 0x79, 0x77, 0x3c, 0x0d, 0xcf, 0x63, 0xbe, 0xb4, 0x79, 0x77, 0x3c,
  0xb4, 0x79, 0x77, 0x3c, 0xb4, 0x79, 0x77, 0x3c, 0xb4, 0x79, 0x77, 0x3c,
  0x0d, 0xcf, 0x63, 0xbe, 0xb4, 0x79, 0x77, 0x3c, 0xb4, 0x79, 0x77, 0x3c,
  0xb4, 0x79, 0x77, 0x3c, 0xb4, 0x79, 0x77, 0x3c, 0xb4, 0x79, 0x77, 0x3c,
  0xb4, 0x79, 0x77, 0x3c, 0xb4, 0x79, 0x77, 0x3c, 0x0d, 0xcf, 0x63, 0xbe,
  0xb4, 0x79, 0x77, 0x3c, 0xb4, 0x79, 0x77, 0x3c, 0xb4, 0x79, 0x77, 0x3c,
  0xb4, 0x79, 0x77, 0x3c, 0xb4, 0x79, 0x77, 0x3c, 0xb4, 0x79, 0x77, 0x3c,
  0xb4, 0x79, 0x77, 0x3c, 0xb4, 0x79, 0x77, 0x3c, 0xb4, 0x79, 0x77, 0x3c,
  0xb4, 0x79, 0x77, 0x3c, 0xb4, 0x79, 0x77, 0x3c, 0xb4, 0x79, 0x77, 0x3c,
  0xb4, 0x79, 0x77, 0x3c, 0x0d, 0xcf, 0x63, 0xbe, 0xb4, 0x79, 0x77, 0x3c,
  0x0d, 0xcf, 0x63, 0xbe, 0xb4, 0x79, 0x77, 0x3c, 0xb4, 0x79, 0x77, 0x3c,
  0xb4, 0x79, 0x77, 0x3c, 0xb4, 0x79, 0x77, 0x3c, 0x0d, 0xcf, 0x63, 0xbe,
  0xb4, 0x79, 0x77, 0x3c, 0xb4, 0x79, 0x77, 0x3c, 0xb4, 0x79, 0x77, 0x3c,
  0xb4, 0x79, 0x77, 0x3c, 0xb4, 0x79, 0x77, 0x3c, 0xb4, 0x79, 0x77, 0x3c,
  0x0d, 0xcf, 0x63, 0xbe, 0xb4, 0x79, 0x77, 0x3c, 0xb4, 0x79, 0x77, 0x3c,
  0x0d, 0xcf, 0x63, 0xbe, 0xb4, 0x79, 0x77, 0x3c, 0xb4, 0x79, 0x77, 0x3c,
  0xb4, 0x79, 0x77, 0x3c, 0xb4, 0x79, 0x77, 0x3c, 0x0d, 0xcf, 0x63, 0xbe,
  0xb4, 0x79, 0x77, 0x3c, 0xb4, 0x79, 0x77, 0x3c, 0xb4, 0x79, 0x77, 0x3c,
  0xb4, 0x79, 0x77, 0x3c, 0xb4, 0x79, 0x77, 0x3c, 0xb4, 0x79, 0x77, 0x3c,
  0xb4, 0x79, 0x77, 0x3c, 0xb4, 0x79, 0x77, 0x3c, 0x0d, 0xcf, 0x63, 0xbe,
  0xb4, 0x79, 0x77, 0x3c, 0xb4, 0x79, 0x77, 0x3c, 0xb4, 0x79, 0x77, 0x3c,
  0x0d, 0xcf, 0x63, 0xbe, 0xb4, 0x79, 0x77, 0x3c, 0x0d, 0xcf, 0x63, 0xbe,
  0xb4, 0x79, 0x77, 0x3c, 0xb4, 0x79, 0x77, 0x3c, 0xb4, 0x79, 0x77, 0x3c,
  0xb4, 0x79, 0x77, 0x3c, 0xb4, 0x79, 0x77, 0x3c, 0xb4, 0x79, 0x77, 0x3c,
  0x0d, 0xcf, 0x63, 0xbe, 0xb4, 0x79, 0x77, 0x3c, 0xb4, 0x79, 0x77, 0x3c,
  0xb4, 0x79, 0x77, 0x3c, 0xb4, 0x79, 0x77, 0x3c, 0x0d, 0xcf, 0x63, 0xbe,
  0xb4, 0x79, 0x77, 0x3c, 0xb4, 0x79, 0x77, 0x3c, 0xb4, 0x79, 0x77, 0x3c,
  0xb4, 0x79, 0x77, 0x3c, 0xb4, 0x79, 0x77, 0x3c, 0xb4, 0x79, 0x77, 0x3c,
  0x0d, 0xcf, 0x63, 0xbe, 0xb4, 0x79, 0x77, 0x3c, 0xb4, 0x79, 0x77, 0x3c,
  0x0d, 0xcf, 0x63, 0xbe, 0xb4, 0x79, 0x77, 0x3c, 0x0d, 0xcf, 0x63, 0xbe,
  0xb4, 0x79, 0x77, 0x3c, 0x0d, 0xcf, 0x63, 0xbe, 0xb4, 0x79, 0x77, 0x3c,
  0xb4, 0x79, 0x77, 0x3c, 0xb4, 0x79, 0x77, 0x3c, 0x0d, 0xcf, 0x63, 0xbe,
  0xb4, 0x79, 0x77, 0x3c, 0xb4, 0x79, 0x77, 0x3c, 0xb4, 0x79, 0x77, 0x3c,
  0xb4, 0x79, 0x77, 0x3c, 0xb4, 0x79, 0x77, 0x3c, 0xb4, 0x79, 0x77, 0x3c,
  0x0d, 0xcf, 0x63, 0xbe, 0xb4, 0x79, 0x77, 0x3c, 0xb4, 0x79, 0x77, 0x3c,
  0xb4, 0x79, 0x77, 0x3c, 0xb4, 0x79, 0x77, 0x3c, 0xb4, 0x79, 0x77, 0x3c,
  0xb4, 0x79, 0x77, 0x3c, 0xb4, 0x79, 0x77, 0x3c, 0x0d, 0xcf, 0x63, 0xbe,
  0xb4, 0x79, 0x77, 0x3c, 0xb4, 0x79, 0x77, 0x3c, 0xb4, 0x79, 0x77, 0x3c,
  0xb4, 0x79, 0x77, 0x3c, 0xb4, 0x79, 0x77, 0x3c, 0xb4, 0x79, 0x77, 0x3c,
  0xb4, 0x79, 0x77, 0x3c, 0xb4, 0x79, 0x77, 0x3c, 0xb4, 0x79, 0x77, 0x3c,
  0xb4, 0x79, 0x77, 0x3c, 0xb4, 0x79, 0x77, 0x3c, 0xb4, 0x79, 0x77, 0x3c,
  0xb4, 0x79, 0x77, 0x3c, 0xb4, 0x79, 0x77, 0x3c, 0xb4, 0x79, 0x77, 0x3c,
  0xb4, 0x79, 0x77, 0x3c, 0xb4, 0x79, 0x77, 0x3c, 0xb4, 0x79, 0x77, 0x3c,
  0xb4, 0x79, 0x77, 0x3c, 0xb4, 0x79, 0x77, 0x3c, 0xb4, 0x79, 0x77, 0x3c,
  0xb4, 0x79, 0x77, 0x3c, 0xb4, 0x79, 0x77, 0x3c, 0xb4, 0x79, 0x77, 0x3c,
  0xb4, 0x79, 0x77, 0x3c, 0xb4, 0x79, 0x77, 0x3c, 0xb4, 0x79, 0x77, 0x3c,
  0x0d, 0xcf, 0x63, 0xbe, 0xb4, 0x79, 0x77, 0x3c, 0xb4, 0x79, 0x77, 0x3c,
  0xb4, 0x79, 0x77, 0x3c, 0xb4, 0x79, 0x77, 0x3c, 0xb4, 0x79, 0x77, 0x3c,
  0xb4, 0x79, 0x77, 0x3c, 0xb4, 0x79, 0x77, 0x3c, 0xb4, 0x79, 0x77, 0x3c,
  0x0d, 0xcf, 0x63, 0xbe, 0xb4, 0x79, 0x77, 0x3c, 0x0d, 0xcf, 0x63, 0xbe,
  0xb4, 0x79, 0x77, 0x3c, 0xb4, 0x79, 0x77, 0x3c, 0xb4, 0x79, 0x77, 0x3c,
  0x0d, 0xcf, 0x63, 0xbe, 0xb4, 0x79, 0x77, 0x3c, 0xb4, 0x79, 0x77, 0x3c,
  0xb4, 0x79, 0x77, 0x3c, 0xb4, 0x79, 0x77, 0x3c, 0xb4, 0x79, 0x77, 0x3c,
  0xb4, 0x79, 0x77, 0x3c, 0xb4, 0x79, 0x77, 0x3c, 0xb4, 0x79, 0x77, 0x3c,
  0xb4, 0x79, 0x77, 0x3c, 0x30, 0x35, 0x82, 0x3e, 0xb4, 0x79, 0x77, 0x3c,
  0xb4, 0x79, 0x77, 0x3c, 0xb4, 0x79, 0x77, 0x3c, 0xb4, 0x79, 0x77, 0x3c,
  0xb4, 0x79, 0x77, 0x3c, 0xb4, 0x79, 0x77, 0x3c, 0x0d, 0xcf, 0x63, 0xbe,
  0xb4, 0x79, 0x77, 0x3c, 0xb4, 0x79, 0x77, 0x3c, 0xb4, 0x79, 0x77, 0x3c,
  0xb4, 0x79, 0x77, 0x3c, 0xb4, 0x79, 0x77, 0x3c, 0xb4, 0x79, 0x77, 0x3c,
  0xb4, 0x79, 0x77, 0x3c, 0x0d, 0xcf, 0x63, 0xbe, 0xb4, 0x79, 0x77, 0x3c,
  0x0d, 0xcf, 0x63, 0xbe, 0x0d, 0xcf, 0x63, 0xbe, 0xb4, 0x79, 0x77, 0x3c,
  0xb4, 0x79, 0x77, 0x3c, 0x0d, 0xcf, 0x63, 0xbe, 0xb4, 0x79, 0x77, 0x3c,
  0x0d, 0xcf, 0x63, 0xbe, 0xb4, 0x79, 0x77, 0x3c, 0xb4, 0x79, 0x77, 0x3c,
  0xb4, 0x79, 0x77, 0x3c, 0xb4, 0x79, 0x77, 0x3c, 0xb4, 0x79, 0x77, 0x3c,
  0xb4, 0x79, 0x77, 0x3c, 0xb4, 0x79, 0x77, 0x3c, 0xb4, 0x79, 0x77, 0x3c,
  0xb4, 0x79, 0x77, 0x3c, 0xb4, 0x79, 0x77, 0x3c, 0xb4, 0x79, 0x77, 0x3c,
  0xb4, 0x79, 0x77, 0x3c, 0xb4, 0x79, 0x77, 0x3c, 0xb4, 0x79, 0x77, 0x3c,
  0xb4, 0x79, 0x77, 0x3c, 0xb4, 0x79, 0x77, 0x3c, 0xb4, 0x79, 0x77, 0x3c,
  0xb4, 0x79, 0x77, 0x3c, 0xb4, 0x79, 0x77, 0x3c, 0xb4, 0x79, 0x77, 0x3c,
  0xb4, 0x79, 0x77, 0x3c, 0xb4, 0x79, 0x77, 0x3c, 0x0d, 0xcf, 0x63, 0xbe,
  0xb4, 0x79, 0x77, 0x3c, 0x0d, 0xcf, 0x63, 0xbe, 0xb4, 0x79, 0x77, 0x3c,
  0xb4, 0x79, 0x77, 0x3c, 0x0d, 0xcf, 0x63, 0xbe, 0x0d, 0xcf, 0x63, 0xbe,
  0xb4, 0x79, 0x77, 0x3c, 0xb4, 0x79, 0x77, 0x3c, 0xb4, 0x79, 0x77, 0x3c,
  0xb4, 0x79, 0x77, 0x3c, 0xb4, 0x79, 0x77, 0x3c, 0xb4, 0x79, 0x77, 0x3c,
  0xb4, 0x79, 0x77, 0x3c, 0xb4, 0x79, 0x77, 0x3c, 0xb4, 0x79, 0x77, 0x3c,
  0xb4, 0x79, 0x77, 0x3c, 0xb4, 0x79, 0x77, 0x3c, 0xb4, 0x79, 0x77, 0x3c,
  0x0d, 0xcf, 0x63, 0xbe, 0xb4, 0x79, 0x77, 0x3c, 0xb4, 0x79, 0x77, 0x3c,
  0xb4, 0x79, 0x77, 0x3c, 0xb4, 0x79, 0x77, 0x3c, 0xb4, 0x79, 0x77, 0x3c,
  0xb4, 0x79, 0x77, 0x3c, 0xb4, 0x79, 0x77, 0x3c, 0xb4, 0x79, 0x77, 0x3c,
  0xb4, 0x79, 0x77, 0x3c, 0xb4, 0x79, 0x77, 0x3c, 0xb4, 0x79, 0x77, 0x3c,
  0xb4, 0x79, 0x77, 0x3c, 0xb4, 0x79, 0x77, 0x3c, 0xb4, 0x79, 0x77, 0x3c,
  0xb4, 0x79, 0x77, 0x3c, 0x0d, 0xcf, 0x63, 0xbe, 0x0d, 0xcf, 0x63, 0xbe,
  0xb4, 0x79, 0x77, 0x3c, 0xb4, 0x79, 0x77, 0x3c, 0xb4, 0x79, 0x77, 0x3c,
  0xb4, 0x79, 0x77, 0x3c, 0xb4, 0x79, 0x77, 0x3c, 0xb4, 0x79, 0x77, 0x3c,
  0xb4, 0x79, 0x77, 0x3c, 0xb4, 0x79, 0x77, 0x3c, 0xb4, 0x79, 0x77, 0x3c,
  0xb4, 0x79, 0x77, 0x3c, 0xb4, 0x79, 0x77, 0x3c, 0xb4, 0x79, 0x77, 0x3c,
  0xb4, 0x79, 0x77, 0x3c, 0xb4, 0x79, 0x77, 0x3c, 0xb4, 0x79, 0x77, 0x3c,
  0x0d, 0xcf, 0x63, 0xbe, 0xb4, 0x79, 0x77, 0x3c, 0x0d, 0xcf, 0x63, 0xbe,
  0x0d, 0xcf, 0x63, 0xbe, 0xb4, 0x79, 0x77, 0x3c, 0xb4, 0x79, 0x77, 0x3c,
  0x0d, 0xcf, 0x63, 0xbe, 0xb4, 0x79, 0x77, 0x3c, 0xb4, 0x79, 0x77, 0x3c,
  0xb4, 0x79, 0x77, 0x3c, 0xb4, 0x79, 0x77, 0x3c, 0xb4, 0x79, 0x77, 0x3c,
  0xb4, 0x79, 0x77, 0x3c, 0xb4, 0x79, 0x77, 0x3c, 0xb4, 0x79, 0x77, 0x3c,
  0xb4, 0x79, 0x77, 0x3c, 0x0d, 0xcf, 0x63, 0xbe, 0xb4, 0x79, 0x77, 0x3c,
  0xb4, 0x79, 0x77, 0x3c, 0xb4, 0x79, 0x77, 0x3c, 0xb4, 0x79, 0x77, 0x3c,
  0x0d, 0xcf, 0x63, 0xbe, 0xb4, 0x79, 0x77, 0x3c, 0xb4, 0x79, 0x77, 0x3c,
  0xb4, 0x79, 0x77, 0x3c, 0xb4, 0x79, 0x77, 0x3c, 0xb4, 0x79, 0x77, 0x3c,
  0xb4, 0x79, 0x77, 0x3c, 0x0d, 0xcf, 0x63, 0xbe, 0xb4, 0x79, 0x77, 0x3c,
  0xb4, 0x79, 0x77, 0x3c, 0xb4, 0x79, 0x77, 0x3c, 0xb4, 0x79, 0x77, 0x3c,
  0xb4, 0x79, 0x77, 0x3c, 0xb4, 0x79, 0x77, 0x3c, 0xb4, 0x79, 0x77, 0x3c,
  0xb4, 0x79, 0x77, 0x3c, 0xb4, 0x79, 0x77, 0x3c, 0x0d, 0xcf, 0x63, 0xbe,
  0xb4, 0x79, 0x77, 0x3c, 0xb4, 0x79, 0x77, 0x3c, 0xb4, 0x79, 0x77, 0x3c,
  0xb4, 0x79, 0x77, 0x3c, 0x0d, 0xcf, 0x63, 0xbe, 0xb4, 0x79, 0x77, 0x3c,
  0xb4, 0x79, 0x77, 0x3c, 0xb4, 0x79, 0x77, 0x3c, 0xb4, 0x79, 0x77, 0x3c,
  0xb4, 0x79, 0x77, 0x3c, 0xb4, 0x79, 0x77, 0x3c, 0xb4, 0x79, 0x77, 0x3c,
  0xb4, 0x79, 0x77, 0x3c, 0xb4, 0x79, 0x77, 0x3c, 0x0d, 0xcf, 0x63, 0xbe,
  0x0d, 0xcf, 0x63, 0xbe, 0xb4, 0x79, 0x77, 0x3c, 0xb4, 0x79, 0x77, 0x3c,
  0xb4, 0x79, 0x77, 0x3c, 0xb4, 0x79, 0x77, 0x3c, 0xb4, 0x79, 0x77, 0x3c,
  0xb4, 0x79, 0x77, 0x3c, 0xb4, 0x79, 0x77, 0x3c, 0xb4, 0x79, 0x77, 0x3c,
  0x0d, 0xcf, 0x63, 0xbe, 0xb4, 0x79, 0x77, 0x3c, 0xb4, 0x79, 0x77, 0x3c,
  0xb4, 0x79, 0x77, 0x3c, 0xb4, 0x79, 0x77, 0x3c, 0x0d, 0xcf, 0x63, 0xbe,
  0xb4, 0x79, 0x77, 0x3c, 0xb4, 0x79, 0x77, 0x3c, 0xb4, 0x79, 0x77, 0x3c,
  0xb4, 0x79, 0x77, 0x3c, 0xb4, 0x79, 0x77, 0x3c, 0xb4, 0x79, 0x77, 0x3c,
  0xb4, 0x79, 0x77, 0x3c, 0xb4, 0x79, 0x77, 0x3c, 0xb4, 0x79, 0x77, 0x3c,
  0x0d, 0xcf, 0x63, 0xbe, 0x0d, 0xcf, 0x63, 0xbe, 0x0d, 0xcf, 0x63, 0xbe,
  0xb4, 0x79, 0x77, 0x3c, 0xb4, 0x79, 0x77, 0x3c, 0xb4, 0x79, 0x77, 0x3c,
  0xb4, 0x79, 0x77, 0x3c, 0xb4, 0x79, 0x77, 0x3c, 0x0d, 0xcf, 0x63, 0xbe,
  0xb4, 0x79, 0x77, 0x3c, 0xb4, 0x79, 0x77, 0x3c, 0xb4, 0x79, 0x77, 0x3c,
  0xb4, 0x79, 0x77, 0x3c, 0xb4, 0x79, 0x77, 0x3c, 0xb4, 0x79, 0x77, 0x3c,
  0xb4, 0x79, 0x77, 0x3c, 0xb4, 0x79, 0x77, 0x3c, 0xb4, 0x79, 0x77, 0x3c,
  0xb4, 0x79, 0x77, 0x3c, 0xb4, 0x79, 0x77, 0x3c, 0xb4, 0x79, 0x77, 0x3c,
  0xb4, 0x79, 0x77, 0x3c, 0x0d, 0xcf, 0x63, 0xbe, 0xb4, 0x79, 0x77, 0x3c,
  0xb4, 0x79, 0x77, 0x3c, 0xb4, 0x79, 0x77, 0x3c, 0x0d, 0xcf, 0x63, 0xbe,
  0xb4, 0x79, 0x77, 0x3c, 0xb4, 0x79, 0x77, 0x3c, 0xb4, 0x79, 0x77, 0x3c,
  0xb4, 0x79, 0x77, 0x3c, 0xb4, 0x79, 0x77, 0x3c, 0xb4, 0x79, 0x77, 0x3c,
  0xb4, 0x79, 0x77, 0x3c, 0xb4, 0x79, 0x77, 0x3c, 0xb4, 0x79, 0x77, 0x3c,
  0xb4, 0x79, 0x77, 0x3c, 0xb4, 0x79, 0x77, 0x3c, 0x0d, 0xcf, 0x63, 0xbe,
  0xb4, 0x79, 0x77, 0x3c, 0xb4, 0x79, 0x77, 0x3c, 0xb4, 0x79, 0x77, 0x3c,
  0xb4, 0x79, 0x77, 0x3c, 0xb4, 0x79, 0x77, 0x3c, 0xb4, 0x79, 0x77, 0x3c,
  0xb4, 0x79, 0x77, 0x3c, 0xb4, 0x79, 0x77, 0x3c, 0xb4, 0x79, 0x77, 0x3c,
  0xb4, 0x79, 0x77, 0x3c, 0xb4, 0x79, 0x77, 0x3c, 0xb4, 0x79, 0x77, 0x3c,
  0xb4, 0x79, 0x77, 0x3c, 0xb4, 0x79, 0x77, 0x3c, 0xb4, 0x79, 0x77, 0x3c,
  0xb4, 0x79, 0x77, 0x3c, 0xb4, 0x79, 0x77, 0x3c, 0xb4, 0x79, 0x77, 0x3c,
  0xb4, 0x79, 0x77, 0x3c, 0xb4, 0x79, 0x77, 0x3c, 0xb4, 0x79, 0x77, 0x3c,
  0xb4, 0x79, 0x77, 0x3c, 0x0d, 0xcf, 0x63, 0xbe, 0xb4, 0x79, 0x77, 0x3c,
  0xb4, 0x79, 0x77, 0x3c, 0xb4, 0x79, 0x77, 0x3c, 0xb4, 0x79, 0x77, 0x3c,
  0xb4, 0x79, 0x77, 0x3c, 0xb4, 0x79, 0x77, 0x3c, 0xb4, 0x79, 0x77, 0x3c,
  0x0d, 0xcf, 0x63, 0xbe, 0x0d, 0xcf, 0x63, 0xbe, 0xb4, 0x79, 0x77, 0x3c,
  0xb4, 0x79, 0x77, 0x3c, 0xb4, 0x79, 0x77, 0x3c, 0xb4, 0x79, 0x77, 0x3c,
  0xb4, 0x79, 0x77, 0x3c, 0xb4, 0x79, 0x77, 0x3c, 0xb4, 0x79, 0x77, 0x3c,
  0xb4, 0x79, 0x77, 0x3c, 0x0d, 0xcf, 0x63, 0xbe, 0xb4, 0x79, 0x77, 0x3c,
  0xb4, 0x79, 0x77, 0x3c, 0xb4, 0x79, 0x77, 0x3c, 0xb4, 0x79, 0x77, 0x3c,
  0xb4, 0x79, 0x77, 0x3c, 0x0d, 0xcf, 0x63, 0xbe, 0xb4, 0x79, 0x77, 0x3c,
  0x0d, 0xcf, 0x63, 0xbe, 0xb4, 0x79, 0x77, 0x3c, 0xb4, 0x79, 0x77, 0x3c,
  0xb4, 0x79, 0x77, 0x3c, 0x0d, 0xcf, 0x63, 0xbe, 0xb4, 0x79, 0x77, 0x3c,
  0xb4, 0x79, 0x77, 0x3c, 0x0d, 0xcf, 0x63, 0xbe, 0xb4, 0x79, 0x77, 0x3c,
  0xb4, 0x79, 0x77, 0x3c, 0xb4, 0x79, 0x77, 0x3c, 0xb4, 0x79, 0x77, 0x3c,
  0xb4, 0x79, 0x77, 0x3c, 0xb4, 0x79, 0x77, 0x3c, 0xb4, 0x79, 0x77, 0x3c,
  0xb4, 0x79, 0x77, 0x3c, 0xb4, 0x79, 0x77, 0x3c, 0xb4, 0x79, 0x77, 0x3c,
  0xb4, 0x79, 0x77, 0x3c, 0xb4, 0x79, 0x77, 0x3c, 0xb4, 0x79, 0x77, 0x3c,
  0xb4, 0x79, 0x77, 0x3c, 0xb4, 0x79, 0x77, 0x3c, 0x0d, 0xcf, 0x63, 0xbe,
  0xb4, 0x79, 0x77, 0x3c, 0xb4, 0x79, 0x77, 0x3c, 0xb4, 0x79, 0x77, 0x3c,
  0xb4, 0x79, 0x77, 0x3c, 0xb4, 0x79, 0x77, 0x3c, 0x0d, 0xcf, 0x63, 0xbe,
  0x0d, 0xcf, 0x63, 0xbe, 0xb4, 0x79, 0x77, 0x3c, 0xb4, 0x79, 0x77, 0x3c,
  0xb4, 0x79, 0x77, 0x3c, 0xb4, 0x79, 0x77, 0x3c, 0xb4, 0x79, 0x77, 0x3c,
  0xb4, 0x79, 0x77, 0x3c, 0xb4, 0x79, 0x77, 0x3c, 0xb4, 0x79, 0x77, 0x3c,
  0xb4, 0x79, 0x77, 0x3c, 0xb4, 0x79, 0x77, 0x3c, 0x0d, 0xcf, 0x63, 0xbe,
  0xb4, 0x79, 0x77, 0x3c, 0x0d, 0xcf, 0x63, 0xbe, 0xb4, 0x79, 0x77, 0x3c,
  0xb4, 0x79, 0x77, 0x3c, 0xb4, 0x79, 0x77, 0x3c, 0xb4, 0x79, 0x77, 0x3c,
  0xb4, 0x79, 0x77, 0x3c, 0xb4, 0x79, 0x77, 0x3c, 0xb4, 0x79, 0x77, 0x3c,
  0xb4, 0x79, 0x77, 0x3c, 0xb4, 0x79, 0x77, 0x3c, 0xb4, 0x79, 0x77, 0x3c,
  0xb4, 0x79, 0x77, 0x3c, 0xb4, 0x79, 0x77, 0x3c, 0xb4, 0x79, 0x77, 0x3c,
  0xb4, 0x79, 0x77, 0x3c, 0x0d, 0xcf, 0x63, 0xbe, 0xb4, 0x79, 0x77, 0x3c,
  0xb4, 0x79, 0x77, 0x3c, 0xb4, 0x79, 0x77, 0x3c, 0xb4, 0x79, 0x77, 0x3c,
  0xb4, 0x79, 0x77, 0x3c, 0xb4, 0x79, 0x77, 0x3c, 0xb4, 0x79, 0x77, 0x3c,
  0xb4, 0x79, 0x77, 0x3c, 0xb4, 0x79, 0x77, 0x3c, 0xb4, 0x79, 0x77, 0x3c,
  0xb4, 0x79, 0x77, 0x3c, 0xb4, 0x79, 0x77, 0x3c, 0xb4, 0x79, 0x77, 0x3c,
  0xb4, 0x79, 0x77, 0x3c, 0xb4, 0x79, 0x77, 0x3c, 0xb4, 0x79, 0x77, 0x3c,
  0xb4, 0x79, 0x77, 0x3c, 0xb4, 0x79, 0x77, 0x3c, 0xb4, 0x79, 0x77, 0x3c,
  0xb4, 0x79, 0x77, 0x3c, 0xb4, 0x79, 0x77, 0x3c, 0xb4, 0x79, 0x77, 0x3c,
  0x0d, 0xcf, 0x63, 0xbe, 0xb4, 0x79, 0x77, 0x3c, 0xb4, 0x79, 0x77, 0x3c,
  0xb4, 0x79, 0x77, 0x3c, 0xb4, 0x79, 0x77, 0x3c, 0xb4, 0x79, 0x77, 0x3c,
  0x0d, 0xcf, 0x63, 0xbe, 0xb4, 0x79, 0x77, 0x3c, 0xb4, 0x79, 0x77, 0x3c,
  0x0d, 0xcf, 0x63, 0xbe, 0xb4, 0x79, 0x77, 0x3c, 0xb4, 0x79, 0x77, 0x3c,
  0xb4, 0x79, 0x77, 0x3c, 0xb4, 0x79, 0x77, 0x3c, 0xb4, 0x79, 0x77, 0x3c,
  0xb4, 0x79, 0x77, 0x3c, 0xb4, 0x79, 0x77, 0x3c, 0xb4, 0x79, 0x77, 0x3c,
  0x0d, 0xcf, 0x63, 0xbe, 0xb4, 0x79, 0x77, 0x3c, 0xb4, 0x79, 0x77, 0x3c,
  0xb4, 0x79, 0x77, 0x3c, 0xb4, 0x79, 0x77, 0x3c, 0x0d, 0xcf, 0x63, 0xbe,
  0xb4, 0x79, 0x77, 0x3c, 0xb4, 0x79, 0x77, 0x3c, 0xb4, 0x79, 0x77, 0x3c,
  0xb4, 0x79, 0x77, 0x3c, 0xb4, 0x79, 0x77, 0x3c, 0xb4, 0x79, 0x77, 0x3c,
  0x0d, 0xcf, 0x63, 0xbe, 0xb4, 0x79, 0x77, 0x3c, 0xb4, 0x79, 0x77, 0x3c,
  0xb4, 0x79, 0x77, 0x3c, 0xb4, 0x79, 0x77, 0x3c, 0xb4, 0x79, 0x77, 0x3c,
  0xb4, 0x79, 0x77, 0x3c, 0x0d, 0xcf, 0x63, 0xbe, 0xb4, 0x79, 0x77, 0x3c,
  0xb4, 0x79, 0x77, 0x3c, 0xb4, 0x79, 0x77, 0x3c, 0xb4, 0x79, 0x77, 0x3c,
  0xb4, 0x79, 0x77, 0x3c, 0xb4, 0x79, 0x77, 0x3c, 0xb4, 0x79, 0x77, 0x3c,
  0xb4, 0x79, 0x77, 0x3c, 0xb4, 0x79, 0x77, 0x3c, 0xb4, 0x79, 0x77, 0x3c,
  0xb4, 0x79, 0x77, 0x3c, 0xb4, 0x79, 0x77, 0x3c, 0xb4, 0x79, 0x77, 0x3c,
  0xb4, 0x79, 0x77, 0x3c, 0xb4, 0x79, 0x77, 0x3c, 0xb4, 0x79, 0x77, 0x3c,
  0xb4, 0x79, 0x77, 0x3c, 0xb4, 0x79, 0x77, 0x3c, 0xb4, 0x79, 0x77, 0x3c,
  0xb4, 0x79, 0x77, 0x3c, 0xb4, 0x79, 0x77, 0x3c, 0xb4, 0x79, 0x77, 0x3c,
  0xb4, 0x79, 0x77, 0x3c, 0xb4, 0x79, 0x77, 0x3c, 0x0d, 0xcf, 0x63, 0xbe,
  0xb4, 0x79, 0x77, 0x3c, 0xb4, 0x79, 0x77, 0x3c, 0xb4, 0x79, 0x77, 0x3c,
  0xb4, 0x79, 0x77, 0x3c, 0xb4, 0x79, 0x77, 0x3c, 0xb4, 0x79, 0x77, 0x3c,
  0xb4, 0x79, 0x77, 0x3c, 0xb4, 0x79, 0x77, 0x3c, 0xb4, 0x79, 0x77, 0x3c,
  0xb4, 0x79, 0x77, 0x3c, 0xb4, 0x79, 0x77, 0x3c, 0xb4, 0x79, 0x77, 0x3c,
  0xb4, 0x79, 0x77, 0x3c, 0xb4, 0x79, 0x77, 0x3c, 0xb4, 0x79, 0x77, 0x3c,
  0xb4, 0x79, 0x77, 0x3c, 0xb4, 0x79, 0x77, 0x3c, 0xb4, 0x79, 0x77, 0x3c,
  0xb4, 0x79, 0x77, 0x3c, 0xb4, 0x79, 0x77, 0x3c, 0xb4, 0x79, 0x77, 0x3c,
  0xb4, 0x79, 0x77, 0x3c, 0xb4, 0x79, 0x77, 0x3c, 0xb4, 0x79, 0x77, 0x3c,
  0xb4, 0x79, 0x77, 0x3c, 0xb4, 0x79, 0x77, 0x3c, 0x0d, 0xcf, 0x63, 0xbe,
  0xb4, 0x79, 0x77, 0x3c, 0xb4, 0x79, 0x77, 0x3c, 0x0d, 0xcf, 0x63, 0xbe,
  0xb4, 0x79, 0x77, 0x3c, 0xb4, 0x79, 0x77, 0x3c, 0xb4, 0x79, 0x77, 0x3c,
  0xb4, 0x79, 0x77, 0x3c, 0xb4, 0x79, 0x77, 0x3c, 0xb4, 0x79, 0x77, 0x3c,
  0xb4, 0x79, 0x77, 0x3c, 0xb4, 0x79, 0x77, 0x3c, 0xb4, 0x79, 0x77, 0x3c,
  0xb4, 0x79, 0x77, 0x3c, 0xb4, 0x79, 0x77, 0x3c, 0xb4, 0x79, 0x77, 0x3c,
  0xb4, 0x79, 0x77, 0x3c, 0xb4, 0x79, 0x77, 0x3c, 0xb4, 0x79, 0x77, 0x3c,
  0xb4, 0x79, 0x77, 0x3c, 0xb4, 0x79, 0x77, 0x3c, 0xb4, 0x79, 0x77, 0x3c,
  0x0d, 0xcf, 0x63, 0xbe, 0xb4, 0x79, 0x77, 0x3c, 0x0d, 0xcf, 0x63, 0xbe,
  0xb4, 0x79, 0x77, 0x3c, 0xb4, 0x79, 0x77, 0x3c, 0xb4, 0x79, 0x77, 0x3c,
  0xb4, 0x79, 0x77, 0x3c, 0xb4, 0x79, 0x77, 0x3c, 0xb4, 0x79, 0x77, 0x3c,
  0xb4, 0x79, 0x77, 0x3c, 0x0d, 0xcf, 0x63, 0xbe, 0xb4, 0x79, 0x77, 0x3c,
  0xb4, 0x79, 0x77, 0x3c, 0xb4, 0x79, 0x77, 0x3c, 0xb4, 0x79, 0x77, 0x3c,
  0x0d, 0xcf, 0x63, 0xbe, 0xb4, 0x79, 0x77, 0x3c, 0xb4, 0x79, 0x77, 0x3c,
  0xb4, 0x79, 0x77, 0x3c, 0xb4, 0x79, 0x77, 0x3c, 0xb4, 0x79, 0x77, 0x3c,
  0xb4, 0x79, 0x77, 0x3c, 0xb4, 0x79, 0x77, 0x3c, 0xb4, 0x79, 0x77, 0x3c,
  0xb4, 0x79, 0x77, 0x3c, 0xb4, 0x79, 0x77, 0x3c, 0x0d, 0xcf, 0x63, 0xbe,
  0xb4, 0x79, 0x77, 0x3c, 0xb4, 0x79, 0x77, 0x3c, 0x0d, 0xcf, 0x63, 0xbe,
  0x0d, 0xcf, 0x63, 0xbe, 0xb4, 0x79, 0x77, 0x3c, 0x0d, 0xcf, 0x63, 0xbe,
  0x0d, 0xcf, 0x63, 0xbe, 0xb4, 0x79, 0x77, 0x3c, 0xb4, 0x79, 0x77, 0x3c,
  0xb4, 0x79, 0x77, 0x3c, 0xb4, 0x79, 0x77, 0x3c, 0xb4, 0x79, 0x77, 0x3c,
  0xb4, 0x79, 0x77, 0x3c, 0xb4, 0x79, 0x77, 0x3c, 0xb4, 0x79, 0x77, 0x3c,
  0xb4, 0x79, 0x77, 0x3c, 0xb4, 0x79, 0x77, 0x3c, 0xb4, 0x79, 0x77, 0x3c,
  0xb4, 0x79, 0x77, 0x3c, 0xb4, 0x79, 0x77, 0x3c, 0xb4, 0x79, 0x77, 0x3c,
  0xb4, 0x79, 0x77, 0x3c, 0xb4, 0x79, 0x77, 0x3c, 0xb4, 0x79, 0x77, 0x3c,
  0xb4, 0x79, 0x77, 0x3c, 0xb4, 0x79, 0x77, 0x3c, 0xb4, 0x79, 0x77, 0x3c,
  0x0d, 0xcf, 0x63, 0xbe, 0xb4, 0x79, 0x77, 0x3c, 0xb4, 0x79, 0x77, 0x3c,
  0x0d, 0xcf, 0x63, 0xbe, 0xb4, 0x79, 0x77, 0x3c, 0x0d, 0xcf, 0x63, 0xbe,
  0xb4, 0x79, 0x77, 0x3c, 0xb4, 0x79, 0x77, 0x3c, 0xb4, 0x79, 0x77, 0x3c,
  0xb4, 0x79, 0x77, 0x3c, 0xb4, 0x79, 0x77, 0x3c, 0xb4, 0x79, 0x77, 0x3c,
  0xb4, 0x79, 0x77, 0x3c, 0xb4, 0x79, 0x77, 0x3c, 0xb4, 0x79, 0x77, 0x3c,
  0xb4, 0x79, 0x77, 0x3c, 0xb4, 0x79, 0x77, 0x3c, 0xb4, 0x79, 0x77, 0x3c,
  0xb4, 0x79, 0x77, 0x3c, 0xb4, 0x79, 0x77, 0x3c, 0xb4, 0x79, 0x77, 0x3c,
  0xb4, 0x79, 0x77, 0x3c, 0xb4, 0x79, 0x77, 0x3c, 0xb4, 0x79, 0x77, 0x3c,
  0xb4, 0x79, 0x77, 0x3c, 0xb4, 0x79, 0x77, 0x3c, 0x0d, 0xcf, 0x63, 0xbe,
  0xb4, 0x79, 0x77, 0x3c, 0xb4, 0x79, 0x77, 0x3c, 0xb4, 0x79, 0x77, 0x3c,
  0xb4, 0x79, 0x77, 0x3c, 0x0d, 0xcf, 0x63, 0xbe, 0xb4, 0x79, 0x77, 0x3c,
  0xb4, 0x79, 0x77, 0x3c, 0xb4, 0x79, 0x77, 0x3c, 0xb4, 0x79, 0x77, 0x3c,
  0xb4, 0x79, 0x77, 0x3c, 0xb4, 0x79, 0x77, 0x3c, 0xb4, 0x79, 0x77, 0x3c,
  0xb4, 0x79, 0x77, 0x3c, 0xb4, 0x79, 0x77, 0x3c, 0xb4, 0x79, 0x77, 0x3c,
  0xb4, 0x79, 0x77, 0x3c, 0xb4, 0x79, 0x77, 0x3c, 0xb4, 0x79, 0x77, 0x3c,
  0xb4, 0x79, 0x77, 0x3c, 0xb4, 0x79, 0x77, 0x3c, 0xb4, 0x79, 0x77, 0x3c,
  0xb4, 0x79, 0x77, 0x3c, 0x0d, 0xcf, 0x63, 0xbe, 0xb4, 0x79, 0x77, 0x3c,
  0x0d, 0xcf, 0x63, 0xbe, 0xb4, 0x79, 0x77, 0x3c, 0x0d, 0xcf, 0x63, 0xbe,
  0x0d, 0xcf, 0x63, 0xbe, 0xb4, 0x79, 0x77, 0x3c, 0xb4, 0x79, 0x77, 0x3c,
  0x0d, 0xcf, 0x63, 0xbe, 0x0d, 0xcf, 0x63, 0xbe, 0xb4, 0x79, 0x77, 0x3c,
  0xb4, 0x79, 0x77, 0x3c, 0xb4, 0x79, 0x77, 0x3c, 0xb4, 0x79, 0x77, 0x3c,
  0x0d, 0xcf, 0x63, 0xbe, 0xb4, 0x79, 0x77, 0x3c, 0xb4, 0x79, 0x77, 0x3c,
  0xb4, 0x79, 0x77, 0x3c, 0xb4, 0x79, 0x77, 0x3c, 0xb4, 0x79, 0x77, 0x3c,
  0xb4, 0x79, 0x77, 0x3c, 0xb4, 0x79, 0x77, 0x3c, 0xb4, 0x79, 0x77, 0x3c,
  0xb4, 0x79, 0x77, 0x3c, 0xb4, 0x79, 0x77, 0x3c, 0xb4, 0x79, 0x77, 0x3c,
  0xb4, 0x79, 0x77, 0x3c, 0xb4, 0x79, 0x77, 0x3c, 0xb4, 0x79, 0x77, 0x3c,
  0xb4, 0x79, 0x77, 0x3c, 0xb4, 0x79, 0x77, 0x3c, 0xb4, 0x79, 0x77, 0x3c,
  0xb4, 0x79, 0x77, 0x3c, 0xb4, 0x79, 0x77, 0x3c, 0x0d, 0xcf, 0x63, 0xbe,
  0xb4, 0x79, 0x77, 0x3c, 0xb4, 0x79, 0x77, 0x3c, 0x0d, 0xcf, 0x63, 0xbe,
  0xb4, 0x79, 0x77, 0x3c, 0xb4, 0x79, 0x77, 0x3c, 0xb4, 0x79, 0x77, 0x3c,
  0xb4, 0x79, 0x77, 0x3c, 0x0d, 0xcf, 0x63, 0xbe, 0x0d, 0xcf, 0x63, 0xbe,
  0xb4, 0x79, 0x77, 0x3c, 0xb4, 0x79, 0x77, 0x3c, 0xb4, 0x79, 0x77, 0x3c,
  0xb4, 0x79, 0x77, 0x3c, 0xb4, 0x79, 0x77, 0x3c, 0xb4, 0x79, 0x77, 0x3c,
  0x0d, 0xcf, 0x63, 0xbe, 0x0d, 0xcf, 0x63, 0xbe, 0xb4, 0x79, 0x77, 0x3c,
  0xb4, 0x79, 0x77, 0x3c, 0xb4, 0x79, 0x77, 0x3c, 0xb4, 0x79, 0x77, 0x3c,
  0xb4, 0x79, 0x77, 0x3c, 0xb4, 0x79, 0x77, 0x3c, 0xb4, 0x79, 0x77, 0x3c,
  0xb4, 0x79, 0x77, 0x3c, 0xb4, 0x79, 0x77, 0x3c, 0xb4, 0x79, 0x77, 0x3c,
  0xb4, 0x79, 0x77, 0x3c, 0xb4, 0x79, 0x77, 0x3c, 0xb4, 0x79, 0x77, 0x3c,
  0xb4, 0x79, 0x77, 0x3c, 0xb4, 0x79, 0x77, 0x3c, 0xb4, 0x79, 0x77, 0x3c,
  0xb4, 0x79, 0x77, 0x3c, 0xb4, 0x79, 0x77, 0x3c, 0xb4, 0x79, 0x77, 0x3c,
  0xb4, 0x79, 0x77, 0x3c, 0xb4, 0x79, 0x77, 0x3c, 0xb4, 0x79, 0x77, 0x3c,
  0xb4, 0x79, 0x77, 0x3c, 0xb4, 0x79, 0x77, 0x3c, 0xb4, 0x79, 0x77, 0x3c,
  0xb4, 0x79, 0x77, 0x3c, 0xb4, 0x79, 0x77, 0x3c, 0xb4, 0x79, 0x77, 0x3c,
  0xb4, 0x79, 0x77, 0x3c, 0xb4, 0x79, 0x77, 0x3c, 0xb4, 0x79, 0x77, 0x3c,
  0xb4, 0x79, 0x77, 0x3c, 0xb4, 0x79, 0x77, 0x3c, 0xb4, 0x79, 0x77, 0x3c,
  0xb4, 0x79, 0x77, 0x3c, 0xb4, 0x79, 0x77, 0x3c, 0xb4, 0x79, 0x77, 0x3c,
  0xb4, 0x79, 0x77, 0x3c, 0xb4, 0x79, 0x77, 0x3c, 0xb4, 0x79, 0x77, 0x3c,
  0xb4, 0x79, 0x77, 0x3c, 0x30, 0x35, 0x82, 0x3e, 0xb4, 0x79, 0x77, 0x3c,
  0xb4, 0x79, 0x77, 0x3c, 0xb4, 0x79, 0x77, 0x3c, 0xb4, 0x79, 0x77, 0x3c,
  0xb4, 0x79, 0x77, 0x3c, 0xb4, 0x79, 0x77, 0x3c, 0xb4, 0x79, 0x77, 0x3c,
  0xb4, 0x79, 0x77, 0x3c, 0xb4, 0x79, 0x77, 0x3c, 0xb4, 0x79, 0x77, 0x3c,
  0xb4, 0x79, 0x77, 0x3c, 0xb4, 0x79, 0x77, 0x3c, 0xb4, 0x79, 0x77, 0x3c,
  0xb4, 0x79, 0x77, 0x3c, 0xb4, 0x79, 0x77, 0x3c, 0xb4, 0x79, 0x77, 0x3c,
  0xb4, 0x79, 0x77, 0x3c, 0xb4, 0x79, 0x77, 0x3c, 0xb4, 0x79, 0x77, 0x3c,
  0xb4, 0x79, 0x77, 0x3c, 0xb4, 0x79, 0x77, 0x3c, 0xb4, 0x79, 0x77, 0x3c,
  0xb4, 0x79, 0x77, 0x3c, 0xb4, 0x79, 0x77, 0x3c, 0xb4, 0x79, 0x77, 0x3c,
  0xb4, 0x79, 0x77, 0x3c, 0xb4, 0x79, 0x77, 0x3c, 0xb4, 0x79, 0x77, 0x3c,
  0xb4, 0x79, 0x77, 0x3c, 0xb4, 0x79, 0x77, 0x3c, 0xb4, 0x79, 0x77, 0x3c,
  0xb4, 0x79, 0x77, 0x3c, 0xb4, 0x79, 0x77, 0x3c, 0xb4, 0x79, 0x77, 0x3c,
  0xb4, 0x79, 0x77, 0x3c, 0x30, 0x35, 0x82, 0x3e, 0xb4, 0x79, 0x77, 0x3c,
  0xb4, 0x79, 0x77, 0x3c, 0xb4, 0x79, 0x77, 0x3c, 0xb4, 0x79, 0x77, 0x3c,
  0xb4, 0x79, 0x77, 0x3c, 0xb4, 0x79, 0x77, 0x3c, 0xb4, 0x79, 0x77, 0x3c,
  0xb4, 0x79, 0x77, 0x3c, 0xb4, 0x79, 0x77, 0x3c, 0xb4, 0x79, 0x77, 0x3c,
  0xb4, 0x79, 0x77, 0x3c, 0xb4, 0x79, 0x77, 0x3c, 0xb4, 0x79, 0x77, 0x3c,
  0xb4, 0x79, 0x77, 0x3c, 0xb4, 0x79, 0x77, 0x3c, 0xb4, 0x79, 0x77, 0x3c,
  0xb4, 0x79, 0x77, 0x3c, 0xb4, 0x79, 0x77, 0x3c, 0xb4, 0x79, 0x77, 0x3c,
  0x30, 0x35, 0x82, 0x3e, 0xb4, 0x79, 0x77, 0x3c, 0xb4, 0x79, 0x77, 0x3c,
  0xb4, 0x79, 0x77, 0x3c, 0xb4, 0x79, 0x77, 0x3c, 0xb4, 0x79, 0x77, 0x3c,
  0xb4, 0x79, 0x77, 0x3c, 0xb4, 0x79, 0x77, 0x3c, 0xb4, 0x79, 0x77, 0x3c,
  0xb4, 0x79, 0x77, 0x3c, 0xb4, 0x79, 0x77, 0x3c, 0xb4, 0x79, 0x77, 0x3c,
  0xb4, 0x79, 0x77, 0x3c, 0xb4, 0x79, 0x77, 0x3c, 0xb4, 0x79, 0x77, 0x3c,
  0xb4, 0x79, 0x77, 0x3c, 0xb4, 0x79, 0x77, 0x3c, 0xb4, 0x79, 0x77, 0x3c,
  0x30, 0x35, 0x82, 0x3e, 0xb4, 0x79, 0x77, 0x3c, 0xb4, 0x79, 0x77, 0x3c,
  0xb4, 0x79, 0x77, 0x3c, 0xb4, 0x79, 0x77, 0x3c, 0xb4, 0x79, 0x77, 0x3c,
  0xb4, 0x79, 0x77, 0x3c, 0xb4, 0x79, 0x77, 0x3c, 0xb4, 0x79, 0x77, 0x3c,
  0xb4, 0x79, 0x77, 0x3c, 0xb4, 0x79, 0x77, 0x3c, 0xb4, 0x79, 0x77, 0x3c,
  0xb4, 0x79, 0x77, 0x3c, 0xb4, 0x79, 0x77, 0x3c, 0xb4, 0x79, 0x77, 0x3c,
  0xb4, 0x79, 0x77, 0x3c, 0x30, 0x35, 0x82, 0x3e, 0xb4, 0x79, 0x77, 0x3c,
  0xb4, 0x79, 0x77, 0x3c, 0xb4, 0x79, 0x77, 0x3c, 0xb4, 0x79, 0x77, 0x3c,
  0xb4, 0x79, 0x77, 0x3c, 0xb4, 0x79, 0x77, 0x3c, 0xb4, 0x79, 0x77, 0x3c,
  0xb4, 0x79, 0x77, 0x3c, 0xb4, 0x79, 0x77, 0x3c, 0xb4, 0x79, 0x77, 0x3c,
  0xb4, 0x79, 0x77, 0x3c, 0xb4, 0x79, 0x77, 0x3c, 0xb4, 0x79, 0x77, 0x3c,
  0xb4, 0x79, 0x77, 0x3c, 0xb4, 0x79, 0x77, 0x3c, 0xb4, 0x79, 0x77, 0x3c,
  0xb4, 0x79, 0x77, 0x3c, 0xb4, 0x79, 0x77, 0x3c, 0x30, 0x35, 0x82, 0x3e,
  0xb4, 0x79, 0x77, 0x3c, 0xb4, 0x79, 0x77, 0x3c, 0xb4, 0x79, 0x77, 0x3c,
  0xb4, 0x79, 0x77, 0x3c, 0xb4, 0x79, 0x77, 0x3c, 0xb4, 0x79, 0x77, 0x3c,
  0xb4, 0x79, 0x77, 0x3c, 0xb4, 0x79, 0x77, 0x3c, 0xb4, 0x79, 0x77, 0x3c,
  0xb4, 0x79, 0x77, 0x3c, 0xb4, 0x79, 0x77, 0x3c, 0xb4, 0x79, 0x77, 0x3c,
  0x30, 0x35, 0x82, 0x3e, 0xb4, 0x79, 0x77, 0x3c, 0xb4, 0x79, 0x77, 0x3c,
  0xb4, 0x79, 0x77, 0x3c, 0xb4, 0x79, 0x77, 0x3c, 0xb4, 0x79, 0x77, 0x3c,
  0xb4, 0x79, 0x77, 0x3c, 0xb4, 0x79, 0x77, 0x3c, 0x30, 0x35, 0x82, 0x3e,
  0xb4, 0x79, 0x77, 0x3c, 0x30, 0x35, 0x82, 0x3e, 0xb4, 0x79, 0x77, 0x3c,
  0xb4, 0x79, 0x77, 0x3c, 0xb4, 0x79, 0x77, 0x3c, 0xb4, 0x79, 0x77, 0x3c,
  0xb4, 0x79, 0x77, 0x3c, 0xb4, 0x79, 0x77, 0x3c, 0xb4, 0x79, 0x77, 0x3c,
  0x0d, 0xcf, 0x63, 0xbe, 0xb4, 0x79, 0x77, 0x3c, 0xb4, 0x79, 0x77, 0x3c,
  0xb4, 0x79, 0x77, 0x3c, 0xb4, 0x79, 0x77, 0x3c, 0xb4, 0x79, 0x77, 0x3c,
  0xb4, 0x79, 0x77, 0x3c, 0xb4, 0x79, 0x77, 0x3c, 0xb4, 0x79, 0x77, 0x3c,
  0xb4, 0x79, 0x77, 0x3c, 0xb4, 0x79, 0x77, 0x3c, 0xb4, 0x79, 0x77, 0x3c,
  0xb4, 0x79, 0x77, 0x3c, 0xb4, 0x79, 0x77, 0x3c, 0xb4, 0x79, 0x77, 0x3c,
  0xb4, 0x79, 0x77, 0x3c, 0xb4, 0x79, 0x77, 0x3c, 0xb4, 0x79, 0x77, 0x3c,
  0xb4, 0x79, 0x77, 0x3c, 0xb4, 0x79, 0x77, 0x3c, 0xb4, 0x79, 0x77, 0x3c,
  0xb4, 0x79, 0x77, 0x3c, 0xb4, 0x79, 0x77, 0x3c, 0xb4, 0x79, 0x77, 0x3c,
  0xb4, 0x79, 0x77, 0x3c, 0xb4, 0x79, 0x77, 0x3c, 0xb4, 0x79, 0x77, 0x3c,
  0xb4, 0x79, 0x77, 0x3c, 0xb4, 0x79, 0x77, 0x3c, 0xb4, 0x79, 0x77, 0x3c,
  0xb4, 0x79, 0x77, 0x3c, 0xb4, 0x79, 0x77, 0x3c, 0xb4, 0x79, 0x77, 0x3c,
  0xb4, 0x79, 0x77, 0x3c, 0xb4, 0x79, 0x77, 0x3c, 0xb4, 0x79, 0x77, 0x3c,
  0xb4, 0x79, 0x77, 0x3c, 0xb4, 0x79, 0x77, 0x3c, 0xb4, 0x79, 0x77, 0x3c,
  0xb4, 0x79, 0x77, 0x3c, 0xb4, 0x79, 0x77, 0x3c, 0xb4, 0x79, 0x77, 0x3c,
  0xb4, 0x79, 0x77, 0x3c, 0xb4, 0x79, 0x77, 0x3c, 0xb4, 0x79, 0x77, 0x3c,
  0xb4, 0x79, 0x77, 0x3c, 0xb4, 0x79, 0x77, 0x3c, 0xb4, 0x79, 0x77, 0x3c,
  0xb4, 0x79, 0x77, 0x3c, 0xb4, 0x79, 0x77, 0x3c, 0xb4, 0x79, 0x77, 0x3c,
  0xb4, 0x79, 0x77, 0x3c, 0xb4, 0x79, 0x77, 0x3c, 0xb4, 0x79, 0x77, 0x3c,
  0xb4, 0x79, 0x77, 0x3c, 0xb4, 0x79, 0x77, 0x3c, 0xb4, 0x79, 0x77, 0x3c,
  0xb4, 0x79, 0x77, 0x3c, 0xb4, 0x79, 0x77, 0x3c, 0xb4, 0x79, 0x77, 0x3c,
  0xb4, 0x79, 0x77, 0x3c, 0xb4, 0x79, 0x77, 0x3c, 0xb4, 0x79, 0x77, 0x3c,
  0xb4, 0x79, 0x77, 0x3c, 0xb4, 0x79, 0x77, 0x3c, 0xb4, 0x79, 0x77, 0x3c,
  0xb4, 0x79, 0x77, 0x3c, 0xb4, 0x79, 0x77, 0x3c, 0xb4, 0x79, 0x77, 0x3c,
  0xb4, 0x79, 0x77, 0x3c, 0xb4, 0x79, 0x77, 0x3c, 0x0d, 0xcf, 0x63, 0xbe,
  0xb4, 0x79, 0x77, 0x3c, 0xb4, 0x79, 0x77, 0x3c, 0xb4, 0x79, 0x77, 0x3c,
  0xb4, 0x79, 0x77, 0x3c, 0xb4, 0x79, 0x77, 0x3c, 0xb4, 0x79, 0x77, 0x3c,
  0xb4, 0x79, 0x77, 0x3c, 0x0d, 0xcf, 0x63, 0xbe, 0xb4, 0x79, 0x77, 0x3c,
  0xb4, 0x79, 0x77, 0x3c, 0x0d, 0xcf, 0x63, 0xbe, 0xb4, 0x79, 0x77, 0x3c,
  0xb4, 0x79, 0x77, 0x3c, 0xb4, 0x79, 0x77, 0x3c, 0xb4, 0x79, 0x77, 0x3c,
  0xb4, 0x79, 0x77, 0x3c, 0xb4, 0x79, 0x77, 0x3c, 0xb4, 0x79, 0x77, 0x3c,
  0xb4, 0x79, 0x77, 0x3c, 0xb4, 0x79, 0x77, 0x3c, 0xb4, 0x79, 0x77, 0x3c,
  0x30, 0x35, 0x82, 0x3e, 0xb4, 0x79, 0x77, 0x3c, 0xb4, 0x79, 0x77, 0x3c,
  0xb4, 0x79, 0x77, 0x3c, 0xb4, 0x79, 0x77, 0x3c, 0x30, 0x35, 0x82, 0x3e,
  0xb4, 0x79, 0x77, 0x3c, 0xb4, 0x79, 0x77, 0x3c, 0xb4, 0x79, 0x77, 0x3c,
  0xb4, 0x79, 0x77, 0x3c, 0xb4, 0x79, 0x77, 0x3c, 0xb4, 0x79, 0x77, 0x3c,
  0xb4, 0x79, 0x77, 0x3c, 0xb4, 0x79, 0x77, 0x3c, 0x30, 0x35, 0x82, 0x3e,
  0xb4, 0x79, 0x77, 0x3c, 0xb4, 0x79, 0x77, 0x3c, 0xb4, 0x79, 0x77, 0x3c,
  0xb4, 0x79, 0x77, 0x3c, 0xb4, 0x79, 0x77, 0x3c, 0xb4, 0x79, 0x77, 0x3c,
  0xb4, 0x79, 0x77, 0x3c, 0xb4, 0x79, 0x77, 0x3c, 0xb4, 0x79, 0x77, 0x3c,
  0xb4, 0x79, 0x77, 0x3c, 0xb4, 0x79, 0x77, 0x3c, 0xb4, 0x79, 0x77, 0x3c,
  0xb4, 0x79, 0x77, 0x3c, 0xb4, 0x79, 0x77, 0x3c, 0xb4, 0x79, 0x77, 0x3c,
  0xb4, 0x79, 0x77, 0x3c, 0xb4, 0x79, 0x77, 0x3c, 0xb4, 0x79, 0x77, 0x3c,
  0x30, 0x35, 0x82, 0x3e, 0xb4, 0x79, 0x77, 0x3c, 0xb4, 0x79, 0x77, 0x3c,
  0xb4, 0x79, 0x77, 0x3c, 0xb4, 0x79, 0x77, 0x3c, 0xb4, 0x79, 0x77, 0x3c,
  0x30, 0x35, 0x82, 0x3e, 0xb4, 0x79, 0x77, 0x3c, 0xb4, 0x79, 0x77, 0x3c,
  0xb4, 0x79, 0x77, 0x3c, 0xb4, 0x79, 0x77, 0x3c, 0xb4, 0x79, 0x77, 0x3c,
  0xb4, 0x79, 0x77, 0x3c, 0xb4, 0x79, 0x77, 0x3c, 0xb4, 0x79, 0x77, 0x3c,
  0xb4, 0x79, 0x77, 0x3c, 0xb4, 0x79, 0x77, 0x3c, 0xb4, 0x79, 0x77, 0x3c,
  0xb4, 0x79, 0x77, 0x3c, 0xb4, 0x79, 0x77, 0x3c, 0xb4, 0x79, 0x77, 0x3c,
  0xb4, 0x79, 0x77, 0x3c, 0xb4, 0x79, 0x77, 0x3c, 0xb4, 0x79, 0x77, 0x3c,
  0xb4, 0x79, 0x77, 0x3c, 0xb4, 0x79, 0x77, 0x3c, 0xb4, 0x79, 0x77, 0x3c,
  0xb4, 0x79, 0x77, 0x3c, 0xb4, 0x79, 0x77, 0x3c, 0xb4, 0x79, 0x77, 0x3c,
  0xb4, 0x79, 0x77, 0x3c, 0xb4, 0x79, 0x77, 0x3c, 0xb4, 0x79, 0x77, 0x3c,
  0xb4, 0x79, 0x77, 0x3c, 0xb4, 0x79, 0x77, 0x3c, 0xb4, 0x79, 0x77, 0x3c,
  0xb4, 0x79, 0x77, 0x3c, 0xb4, 0x79, 0x77, 0x3c, 0x30, 0x35, 0x82, 0x3e,
  0xb4, 0x79, 0x77, 0x3c, 0xb4, 0x79, 0x77, 0x3c, 0xb4, 0x79, 0x77, 0x3c,
  0xb4, 0x79, 0x77, 0x3c, 0xb4, 0x79, 0x77, 0x3c, 0xb4, 0x79, 0x77, 0x3c,
  0x30, 0x35, 0x82, 0x3e, 0xb4, 0x79, 0x77, 0x3c, 0xb4, 0x79, 0x77, 0x3c,
  0xb4, 0x79, 0x77, 0x3c, 0xb4, 0x79, 0x77, 0x3c, 0xb4, 0x79, 0x77, 0x3c,
  0xb4, 0x79, 0x77, 0x3c, 0xb4, 0x79, 0x77, 0x3c, 0xb4, 0x79, 0x77, 0x3c,
  0xb4, 0x79, 0x77, 0x3c, 0xb4, 0x79, 0x77, 0x3c, 0xb4, 0x79, 0x77, 0x3c,
  0xb4, 0x79, 0x77, 0x3c, 0xb4, 0x79, 0x77, 0x3c, 0xb4, 0x79, 0x77, 0x3c,
  0xb4, 0x79, 0x77, 0x3c, 0xb4, 0x79, 0x77, 0x3c, 0xb4, 0x79, 0x77, 0x3c,
  0xb4, 0x79, 0x77, 0x3c, 0xb4, 0x79, 0x77, 0x3c, 0xb4, 0x79, 0x77, 0x3c,
  0xb4, 0x79, 0x77, 0x3c, 0xb4, 0x79, 0x77, 0x3c, 0xb4, 0x79, 0x77, 0x3c,
  0xb4, 0x79, 0x77, 0x3c, 0xb4, 0x79, 0x77, 0x3c, 0xb4, 0x79, 0x77, 0x3c,
  0xb4, 0x79, 0x77, 0x3c, 0xb4, 0x79, 0x77, 0x3c, 0xb4, 0x79, 0x77, 0x3c,
  0xb4, 0x79, 0x77, 0x3c, 0xb4, 0x79, 0x77, 0x3c, 0xb4, 0x79, 0x77, 0x3c,
  0xb4, 0x79, 0x77, 0x3c, 0xb4, 0x79, 0x77, 0x3c, 0xb4, 0x79, 0x77, 0x3c,
  0xb4, 0x79, 0x77, 0x3c, 0xb4, 0x79, 0x77, 0x3c, 0xb4, 0x79, 0x77, 0x3c,
  0xb4, 0x79, 0x77, 0x3c, 0xb4, 0x79, 0x77, 0x3c, 0xb4, 0x79, 0x77, 0x3c,
  0xb4, 0x79, 0x77, 0x3c, 0xb4, 0x79, 0x77, 0x3c, 0xb4, 0x79, 0x77, 0x3c,
  0xb4, 0x79, 0x77, 0x3c, 0xb4, 0x79, 0x77, 0x3c, 0xb4, 0x79, 0x77, 0x3c,
  0x30, 0x35, 0x82, 0x3e, 0xb4, 0x79, 0x77, 0x3c, 0xb4, 0x79, 0x77, 0x3c,
  0xb4, 0x79, 0x77, 0x3c, 0xb4, 0x79, 0x77, 0x3c, 0xb4, 0x79, 0x77, 0x3c,
  0xb4, 0x79, 0x77, 0x3c, 0x30, 0x35, 0x82, 0x3e, 0xb4, 0x79, 0x77, 0x3c,
  0xb4, 0x79, 0x77, 0x3c, 0xb4, 0x79, 0x77, 0x3c, 0xb4, 0x79, 0x77, 0x3c,
  0xb4, 0x79, 0x77, 0x3c, 0xb4, 0x79, 0x77, 0x3c, 0xb4, 0x79, 0x77, 0x3c,
  0xb4, 0x79, 0x77, 0x3c, 0xb4, 0x79, 0x77, 0x3c, 0xb4, 0x79, 0x77, 0x3c,
  0xb4, 0x79, 0x77, 0x3c, 0xb4, 0x79, 0x77, 0x3c, 0xb4, 0x79, 0x77, 0x3c,
  0xb4, 0x79, 0x77, 0x3c, 0x30, 0x35, 0x82, 0x3e, 0xb4, 0x79, 0x77, 0x3c,
  0xb4, 0x79, 0x77, 0x3c, 0xb4, 0x79, 0x77, 0x3c, 0xb4, 0x79, 0x77, 0x3c,
  0xb4, 0x79, 0x77, 0x3c, 0xb4, 0x79, 0x77, 0x3c, 0xb4, 0x79, 0x77, 0x3c,
  0xb4, 0x79, 0x77, 0x3c, 0xb4, 0x79, 0x77, 0x3c, 0xb4, 0x79, 0x77, 0x3c,
  0xb4, 0x79, 0x77, 0x3c, 0xb4, 0x79, 0x77, 0x3c, 0xb4, 0x79, 0x77, 0x3c,
  0xb4, 0x79, 0x77, 0x3c, 0x30, 0x35, 0x82, 0x3e, 0xb4, 0x79, 0x77, 0x3c,
  0xb4, 0x79, 0x77, 0x3c, 0xb4, 0x79, 0x77, 0x3c, 0xb4, 0x79, 0x77, 0x3c,
  0xb4, 0x79, 0x77, 0x3c, 0xb4, 0x79, 0x77, 0x3c, 0xb4, 0x79, 0x77, 0x3c,
  0xb4, 0x79, 0x77, 0x3c, 0xb4, 0x79, 0x77, 0x3c, 0xb4, 0x79, 0x77, 0x3c,
  0xb4, 0x79, 0x77, 0x3c, 0xb4, 0x79, 0x77, 0x3c, 0xb4, 0x79, 0x77, 0x3c,
  0xb4, 0x79, 0x77, 0x3c, 0xb4, 0x79, 0x77, 0x3c, 0xb4, 0x79, 0x77, 0x3c,
  0xb4, 0x79, 0x77, 0x3c, 0xb4, 0x79, 0x77, 0x3c, 0xb4, 0x79, 0x77, 0x3c,
  0xb4, 0x79, 0x77, 0x3c, 0xb4, 0x79, 0x77, 0x3c, 0xb4, 0x79, 0x77, 0x3c,
  0xb4, 0x79, 0x77, 0x3c, 0xb4, 0x79, 0x77, 0x3c, 0xb4, 0x79, 0x77, 0x3c,
  0xb4, 0x79, 0x77, 0x3c, 0xb4, 0x79, 0x77, 0x3c, 0xb4, 0x79, 0x77, 0x3c,
  0xb4, 0x79, 0x77, 0x3c, 0xb4, 0x79, 0x77, 0x3c, 0xb4, 0x79, 0x77, 0x3c,
  0xb4, 0x79, 0x77, 0x3c, 0xb4, 0x79, 0x77, 0x3c, 0xb4, 0x79, 0x77, 0x3c,
  0xb4, 0x79, 0x77, 0x3c, 0xb4, 0x79, 0x77, 0x3c, 0xb4, 0x79, 0x77, 0x3c,
  0xb4, 0x79, 0x77, 0x3c, 0xb4, 0x79, 0x77, 0x3c, 0xb4, 0x79, 0x77, 0x3c,
  0xb4, 0x79, 0x77, 0x3c, 0xb4, 0x79, 0x77, 0x3c, 0xb4, 0x79, 0x77, 0x3c,
  0xb4, 0x79, 0x77, 0x3c, 0xb4, 0x79, 0x77, 0x3c, 0xb4, 0x79, 0x77, 0x3c,
  0xb4, 0x79, 0x77, 0x3c, 0xb4, 0x79, 0x77, 0x3c, 0xb4, 0x79, 0x77, 0x3c,
  0xb4, 0x79, 0x77, 0x3c, 0xb4, 0x79, 0x77, 0x3c, 0xb4, 0x79, 0x77, 0x3c,
  0xb4, 0x79, 0x77, 0x3c, 0xb4, 0x79, 0x77, 0x3c, 0xb4, 0x79, 0x77, 0x3c,
  0xb4, 0x79, 0x77, 0x3c, 0xb4, 0x79, 0x77, 0x3c, 0xb4, 0x79, 0x77, 0x3c,
  0xb4, 0x79, 0x77, 0x3c, 0xb4, 0x79, 0x77, 0x3c, 0xb4, 0x79, 0x77, 0x3c,
  0xb4, 0x79, 0x77, 0x3c, 0xb4, 0x79, 0x77, 0x3c, 0xb4, 0x79, 0x77, 0x3c,
  0xb4, 0x79, 0x77, 0x3c, 0xb4, 0x79, 0x77, 0x3c, 0xb4, 0x79, 0x77, 0x3c,
  0xb4, 0x79, 0x77, 0x3c, 0xb4, 0x79, 0x77, 0x3c, 0xb4, 0x79, 0x77, 0x3c,
  0xb4, 0x79, 0x77, 0x3c, 0xb4, 0x79, 0x77, 0x3c, 0xb4, 0x79, 0x77, 0x3c,
  0xb4, 0x79, 0x77, 0x3c, 0xb4, 0x79, 0x77, 0x3c, 0xb4, 0x79, 0x77, 0x3c,
  0xb4, 0x79, 0x77, 0x3c, 0xb4, 0x79, 0x77, 0x3c, 0xb4, 0x79, 0x77, 0x3c,
  0xb4, 0x79, 0x77, 0x3c, 0xb4, 0x79, 0x77, 0x3c, 0x30, 0x35, 0x82, 0x3e,
  0xb4, 0x79, 0x77, 0x3c, 0x30, 0x35, 0x82, 0x3e, 0xb4, 0x79, 0x77, 0x3c,
  0xb4, 0x79, 0x77, 0x3c, 0xb4, 0x79, 0x77, 0x3c, 0xb4, 0x79, 0x77, 0x3c,
  0xb4, 0x79, 0x77, 0x3c, 0xb4, 0x79, 0x77, 0x3c, 0xb4, 0x79, 0x77, 0x3c,
  0xb4, 0x79, 0x77, 0x3c, 0xb4, 0x79, 0x77, 0x3c, 0xb4, 0x79, 0x77, 0x3c,
  0xb4, 0x79, 0x77, 0x3c, 0xb4, 0x79, 0x77, 0x3c, 0xb4, 0x79, 0x77, 0x3c,
  0xb4, 0x79, 0x77, 0x3c, 0xb4, 0x79, 0x77, 0x3c, 0xb4, 0x79, 0x77, 0x3c,
  0xb4, 0x79, 0x77, 0x3c, 0xb4, 0x79, 0x77, 0x3c, 0xb4, 0x79, 0x77, 0x3c,
  0xb4, 0x79, 0x77, 0x3c, 0xb4, 0x79, 0x77, 0x3c, 0xb4, 0x79, 0x77, 0x3c,
  0xb4, 0x79, 0x77, 0x3c, 0xb4, 0x79, 0x77, 0x3c, 0xb4, 0x79, 0x77, 0x3c,
  0xb4, 0x79, 0x77, 0x3c, 0xb4, 0x79, 0x77, 0x3c, 0x30, 0x35, 0x82, 0x3e,
  0xb4, 0x79, 0x77, 0x3c, 0xb4, 0x79, 0x77, 0x3c, 0xb4, 0x79, 0x77, 0x3c,
  0xb4, 0x79, 0x77, 0x3c, 0xb4, 0x79, 0x77, 0x3c, 0xb4, 0x79, 0x77, 0x3c,
  0xb4, 0x79, 0x77, 0x3c, 0xb4, 0x79, 0x77, 0x3c, 0xb4, 0x79, 0x77, 0x3c,
  0xb4, 0x79, 0x77, 0x3c, 0xb4, 0x79, 0x77, 0x3c, 0xb4, 0x79, 0x77, 0x3c,
  0xb4, 0x79, 0x77, 0x3c, 0xb4, 0x79, 0x77, 0x3c, 0xb4, 0x79, 0x77, 0x3c,
  0xb4, 0x79, 0x77, 0x3c, 0xb4, 0x79, 0x77, 0x3c, 0xb4, 0x79, 0x77, 0x3c,
  0xb4, 0x79, 0x77, 0x3c, 0xb4, 0x79, 0x77, 0x3c, 0xb4, 0x79, 0x77, 0x3c,
  0xb4, 0x79, 0x77, 0x3c, 0xb4, 0x79, 0x77, 0x3c, 0xb4, 0x79, 0x77, 0x3c,
  0xb4, 0x79, 0x77, 0x3c, 0xb4, 0x79, 0x77, 0x3c, 0xb4, 0x79, 0x77, 0x3c,
  0xb4, 0x79, 0x77, 0x3c, 0xb4, 0x79, 0x77, 0x3c, 0xb4, 0x79, 0x77, 0x3c,
  0xb4, 0x79, 0x77, 0x3c, 0xb4, 0x79, 0x77, 0x3c, 0xb4, 0x79, 0x77, 0x3c,
  0xb4, 0x79, 0x77, 0x3c, 0xb4, 0x79, 0x77, 0x3c, 0xb4, 0x79, 0x77, 0x3c,
  0x30, 0x35, 0x82, 0x3e, 0xb4, 0x79, 0x77, 0x3c, 0xb4, 0x79, 0x77, 0x3c,
  0xb4, 0x79, 0x77, 0x3c, 0xb4, 0x79, 0x77, 0x3c, 0x30, 0x35, 0x82, 0x3e,
  0xb4, 0x79, 0x77, 0x3c, 0xb4, 0x79, 0x77, 0x3c, 0xb4, 0x79, 0x77, 0x3c,
  0xb4, 0x79, 0x77, 0x3c, 0xb4, 0x79, 0x77, 0x3c, 0xb4, 0x79, 0x77, 0x3c,
  0xb4, 0x79, 0x77, 0x3c, 0xb4, 0x79, 0x77, 0x3c, 0xb4, 0x79, 0x77, 0x3c,
  0xb4, 0x79, 0x77, 0x3c, 0xb4, 0x79, 0x77, 0x3c, 0xb4, 0x79, 0x77, 0x3c,
  0xb4, 0x79, 0x77, 0x3c, 0xb4, 0x79, 0x77, 0x3c, 0xb4, 0x79, 0x77, 0x3c,
  0xb4, 0x79, 0x77, 0x3c, 0xb4, 0x79, 0x77, 0x3c, 0xb4, 0x79, 0x77, 0x3c,
  0xb4, 0x79, 0x77, 0x3c, 0xb4, 0x79, 0x77, 0x3c, 0xb4, 0x79, 0x77, 0x3c,
  0xb4, 0x79, 0x77, 0x3c, 0xb4, 0x79, 0x77, 0x3c, 0xb4, 0x79, 0x77, 0x3c,
  0xb4, 0x79, 0x77, 0x3c, 0xb4, 0x79, 0x77, 0x3c, 0xb4, 0x79, 0x77, 0x3c,
  0x0d, 0xcf, 0x63, 0xbe, 0xb4, 0x79, 0x77, 0x3c, 0xb4, 0x79, 0x77, 0x3c,
  0xb4, 0x79, 0x77, 0x3c, 0xb4, 0x79, 0x77, 0x3c, 0xb4, 0x79, 0x77, 0x3c,
  0xb4, 0x79, 0x77, 0x3c, 0xb4, 0x79, 0x77, 0x3c, 0xb4, 0x79, 0x77, 0x3c,
  0xb4, 0x79, 0x77, 0x3c, 0xb4, 0x79, 0x77, 0x3c, 0x0d, 0xcf, 0x63, 0xbe,
  0xb4, 0x79, 0x77, 0x3c, 0x0d, 0xcf, 0x63, 0xbe, 0xb4, 0x79, 0x77, 0x3c,
  0xb4, 0x79, 0x77, 0x3c, 0xb4, 0x79, 0x77, 0x3c, 0xb4, 0x79, 0x77, 0x3c,
  0xb4, 0x79, 0x77, 0x3c, 0xb4, 0x79, 0x77, 0x3c, 0xb4, 0x79, 0x77, 0x3c,
  0x0d, 0xcf, 0x63, 0xbe, 0xb4, 0x79, 0x77, 0x3c, 0xb4, 0x79, 0x77, 0x3c,
  0xb4, 0x79, 0x77, 0x3c, 0xb4, 0x79, 0x77, 0x3c, 0xb4, 0x79, 0x77, 0x3c,
  0x0d, 0xcf, 0x63, 0xbe, 0x0d, 0xcf, 0x63, 0xbe, 0xb4, 0x79, 0x77, 0x3c,
  0xb4, 0x79, 0x77, 0x3c, 0xb4, 0x79, 0x77, 0x3c, 0xb4, 0x79, 0x77, 0x3c,
  0x30, 0x35, 0x82, 0x3e, 0xb4, 0x79, 0x77, 0x3c, 0xb4, 0x79, 0x77, 0x3c,
  0xb4, 0x79, 0x77, 0x3c, 0xb4, 0x79, 0x77, 0x3c, 0xb4, 0x79, 0x77, 0x3c,
  0xb4, 0x79, 0x77, 0x3c, 0xb4, 0x79, 0x77, 0x3c, 0xb4, 0x79, 0x77, 0x3c,
  0xb4, 0x79, 0x77, 0x3c, 0xb4, 0x79, 0x77, 0x3c, 0xb4, 0x79, 0x77, 0x3c,
  0xb4, 0x79, 0x77, 0x3c, 0xb4, 0x79, 0x77, 0x3c, 0xb4, 0x79, 0x77, 0x3c,
  0xb4, 0x79, 0x77, 0x3c, 0xb4, 0x79, 0x77, 0x3c, 0xb4, 0x79, 0x77, 0x3c,
  0xb4, 0x79, 0x77, 0x3c, 0xb4, 0x79, 0x77, 0x3c, 0xb4, 0x79, 0x77, 0x3c,
  0x30, 0x35, 0x82, 0x3e, 0xb4, 0x79, 0x77, 0x3c, 0xb4, 0x79, 0x77, 0x3c,
  0xb4, 0x79, 0x77, 0x3c, 0xb4, 0x79, 0x77, 0x3c, 0xb4, 0x79, 0x77, 0x3c,
  0xb4, 0x79, 0x77, 0x3c, 0x0d, 0xcf, 0x63, 0xbe, 0xb4, 0x79, 0x77, 0x3c,
  0xb4, 0x79, 0x77, 0x3c, 0xb4, 0x79, 0x77, 0x3c, 0x30, 0x35, 0x82, 0x3e,
  0xb4, 0x79, 0x77, 0x3c, 0xb4, 0x79, 0x77, 0x3c, 0xb4, 0x79, 0x77, 0x3c,
  0xb4, 0x79, 0x77, 0x3c, 0xb4, 0x79, 0x77, 0x3c, 0xb4, 0x79, 0x77, 0x3c,
  0xb4, 0x79, 0x77, 0x3c, 0xb4, 0x79, 0x77, 0x3c, 0xb4, 0x79, 0x77, 0x3c,
  0xb4, 0x79, 0x77, 0x3c, 0xb4, 0x79, 0x77, 0x3c, 0xb4, 0x79, 0x77, 0x3c,
  0xb4, 0x79, 0x77, 0x3c, 0xb4, 0x79, 0x77, 0x3c, 0xb4, 0x79, 0x77, 0x3c,
  0xb4, 0x79, 0x77, 0x3c, 0xb4, 0x79, 0x77, 0x3c, 0xb4, 0x79, 0x77, 0x3c,
  0xb4, 0x79, 0x77, 0x3c, 0xb4, 0x79, 0x77, 0x3c, 0xb4, 0x79, 0x77, 0x3c,
  0xb4, 0x79, 0x77, 0x3c, 0xb4, 0x79, 0x77, 0x3c, 0xb4, 0x79, 0x77, 0x3c,
  0xb4, 0x79, 0x77, 0x3c, 0xb4, 0x79, 0x77, 0x3c, 0xb4, 0x79, 0x77, 0x3c,
  0xb4, 0x79, 0x77, 0x3c, 0xb4, 0x79, 0x77, 0x3c, 0xb4, 0x79, 0x77, 0x3c,
  0xb4, 0x79, 0x77, 0x3c, 0xb4, 0x79, 0x77, 0x3c, 0xb4, 0x79, 0x77, 0x3c,
  0x30, 0x35, 0x82, 0x3e, 0xb4, 0x79, 0x77, 0x3c, 0xb4, 0x79, 0x77, 0x3c,
  0xb4, 0x79, 0x77, 0x3c, 0xb4, 0x79, 0x77, 0x3c, 0xb4, 0x79, 0x77, 0x3c,
  0xb4, 0x79, 0x77, 0x3c, 0xb4, 0x79, 0x77, 0x3c, 0xb4, 0x79, 0x77, 0x3c,
  0xb4, 0x79, 0x77, 0x3c, 0xb4, 0x79, 0x77, 0x3c, 0xb4, 0x79, 0x77, 0x3c,
  0xb4, 0x79, 0x77, 0x3c, 0xb4, 0x79, 0x77, 0x3c, 0xb4, 0x79, 0x77, 0x3c,
  0xb4, 0x79, 0x77, 0x3c, 0xb4, 0x79, 0x77, 0x3c, 0xb4, 0x79, 0x77, 0x3c,
  0xb4, 0x79, 0x77, 0x3c, 0xb4, 0x79, 0x77, 0x3c, 0xb4, 0x79, 0x77, 0x3c,
  0xb4, 0x79, 0x77, 0x3c, 0xb4, 0x79, 0x77, 0x3c, 0xb4, 0x79, 0x77, 0x3c,
  0xb4, 0x79, 0x77, 0x3c, 0xb4, 0x79, 0x77, 0x3c, 0xb4, 0x79, 0x77, 0x3c,
  0xb4, 0x79, 0x77, 0x3c, 0xb4, 0x79, 0x77, 0x3c, 0xb4, 0x79, 0x77, 0x3c,
  0xb4, 0x79, 0x77, 0x3c, 0xb4, 0x79, 0x77, 0x3c, 0xb4, 0x79, 0x77, 0x3c,
  0xb4, 0x79, 0x77, 0x3c, 0xb4, 0x79, 0x77, 0x3c, 0xb4, 0x79, 0x77, 0x3c,
  0xb4, 0x79, 0x77, 0x3c, 0xb4, 0x79, 0x77, 0x3c, 0xb4, 0x79, 0x77, 0x3c,
  0xb4, 0x79, 0x77, 0x3c, 0xb4, 0x79, 0x77, 0x3c, 0xb4, 0x79, 0x77, 0x3c,
  0xb4, 0x79, 0x77, 0x3c, 0xb4, 0x79, 0x77, 0x3c, 0xb4, 0x79, 0x77, 0x3c,
  0xb4, 0x79, 0x77, 0x3c, 0xb4, 0x79, 0x77, 0x3c, 0xb4, 0x79, 0x77, 0x3c,
  0xb4, 0x79, 0x77, 0x3c, 0xb4, 0x79, 0x77, 0x3c, 0xb4, 0x79, 0x77, 0x3c,
  0xb4, 0x79, 0x77, 0x3c, 0xb4, 0x79, 0x77, 0x3c, 0xb4, 0x79, 0x77, 0x3c,
  0xb4, 0x79, 0x77, 0x3c, 0xb4, 0x79, 0x77, 0x3c, 0xb4, 0x79, 0x77, 0x3c,
  0xb4, 0x79, 0x77, 0x3c, 0xb4, 0x79, 0x77, 0x3c, 0xb4, 0x79, 0x77, 0x3c,
  0xb4, 0x79, 0x77, 0x3c, 0x30, 0x35, 0x82, 0x3e, 0xb4, 0x79, 0x77, 0x3c,
  0xb4, 0x79, 0x77, 0x3c, 0xb4, 0x79, 0x77, 0x3c, 0xb4, 0x79, 0x77, 0x3c,
  0xb4, 0x79, 0x77, 0x3c, 0xb4, 0x79, 0x77, 0x3c, 0xb4, 0x79, 0x77, 0x3c,
  0xb4, 0x79, 0x77, 0x3c, 0xb4, 0x79, 0x77, 0x3c, 0xb4, 0x79, 0x77, 0x3c,
  0x30, 0x35, 0x82, 0x3e, 0xb4, 0x79, 0x77, 0x3c, 0xb4, 0x79, 0x77, 0x3c,
  0xb4, 0x79, 0x77, 0x3c, 0xb4, 0x79, 0x77, 0x3c, 0xb4, 0x79, 0x77, 0x3c,
  0x30, 0x35, 0x82, 0x3e, 0xb4, 0x79, 0x77, 0x3c, 0xb4, 0x79, 0x77, 0x3c,
  0xb4, 0x79, 0x77, 0x3c, 0xb4, 0x79, 0x77, 0x3c, 0xb4, 0x79, 0x77, 0x3c,
  0xb4, 0x79, 0x77, 0x3c, 0xb4, 0x79, 0x77, 0x3c, 0xb4, 0x79, 0x77, 0x3c,
  0xb4, 0x79, 0x77, 0x3c, 0xb4, 0x79, 0x77, 0x3c, 0xb4, 0x79, 0x77, 0x3c,
  0xb4, 0x79, 0x77, 0x3c, 0xb4, 0x79, 0x77, 0x3c, 0xb4, 0x79, 0x77, 0x3c,
  0xb4, 0x79, 0x77, 0x3c, 0xb4, 0x79, 0x77, 0x3c, 0xb4, 0x79, 0x77, 0x3c,
  0xb4, 0x79, 0x77, 0x3c, 0xb4, 0x79, 0x77, 0x3c, 0xb4, 0x79, 0x77, 0x3c,
  0xb4, 0x79, 0x77, 0x3c, 0xb4, 0x79, 0x77, 0x3c, 0xb4, 0x79, 0x77, 0x3c,
  0xb4, 0x79, 0x77, 0x3c, 0xb4, 0x79, 0x77, 0x3c, 0xb4, 0x79, 0x77, 0x3c,
  0xb4, 0x79, 0x77, 0x3c, 0xb4, 0x79, 0x77, 0x3c, 0xb4, 0x79, 0x77, 0x3c,
  0xb4, 0x79, 0x77, 0x3c, 0xb4, 0x79, 0x77, 0x3c, 0xb4, 0x79, 0x77, 0x3c,
  0xb4, 0x79, 0x77, 0x3c, 0xb4, 0x79, 0x77, 0x3c, 0xb4, 0x79, 0x77, 0x3c,
  0xb4, 0x79, 0x77, 0x3c, 0xb4, 0x79, 0x77, 0x3c, 0xb4, 0x79, 0x77, 0x3c,
  0xb4, 0x79, 0x77, 0x3c, 0xb4, 0x79, 0x77, 0x3c, 0xb4, 0x79, 0x77, 0x3c,
  0x30, 0x35, 0x82, 0x3e, 0xb4, 0x79, 0x77, 0x3c, 0xb4, 0x79, 0x77, 0x3c,
  0xb4, 0x79, 0x77, 0x3c, 0xb4, 0x79, 0x77, 0x3c, 0xb4, 0x79, 0x77, 0x3c,
  0xb4, 0x79, 0x77, 0x3c, 0xb4, 0x79, 0x77, 0x3c, 0xb4, 0x79, 0x77, 0x3c,
  0xb4, 0x79, 0x77, 0x3c, 0xb4, 0x79, 0x77, 0x3c, 0xb4, 0x79, 0x77, 0x3c,
  0xb4, 0x79, 0x77, 0x3c, 0xb4, 0x79, 0x77, 0x3c, 0xb4, 0x79, 0x77, 0x3c,
  0xb4, 0x79, 0x77, 0x3c, 0xb4, 0x79, 0x77, 0x3c, 0xb4, 0x79, 0x77, 0x3c,
  0xb4, 0x79, 0x77, 0x3c, 0xb4, 0x79, 0x77, 0x3c, 0xb4, 0x79, 0x77, 0x3c,
  0xb4, 0x79, 0x77, 0x3c, 0xb4, 0x79, 0x77, 0x3c, 0xb4, 0x79, 0x77, 0x3c,
  0xb4, 0x79, 0x77, 0x3c, 0xb4, 0x79, 0x77, 0x3c, 0xb4, 0x79, 0x77, 0x3c,
  0xb4, 0x79, 0x77, 0x3c, 0xb4, 0x79, 0x77, 0x3c, 0xb4, 0x79, 0x77, 0x3c,
  0xb4, 0x79, 0x77, 0x3c, 0xb4, 0x79, 0x77, 0x3c, 0xb4, 0x79, 0x77, 0x3c,
  0xb4, 0x79, 0x77, 0x3c, 0xb4, 0x79, 0x77, 0x3c, 0xb4, 0x79, 0x77, 0x3c,
  0xb4, 0x79, 0x77, 0x3c, 0xb4, 0x79, 0x77, 0x3c, 0xb4, 0x79, 0x77, 0x3c,
  0xb4, 0x79, 0x77, 0x3c, 0xb4, 0x79, 0x77, 0x3c, 0xb4, 0x79, 0x77, 0x3c,
  0xb4, 0x79, 0x77, 0x3c, 0xb4, 0x79, 0x77, 0x3c, 0xb4, 0x79, 0x77, 0x3c,
  0xb4, 0x79, 0x77, 0x3c, 0xb4, 0x79, 0x77, 0x3c, 0xb4, 0x79, 0x77, 0x3c,
  0xb4, 0x79, 0x77, 0x3c, 0xb4, 0x79, 0x77, 0x3c, 0xb4, 0x79, 0x77, 0x3c,
  0xb4, 0x79, 0x77, 0x3c, 0xb4, 0x79, 0x77, 0x3c, 0xb4, 0x79, 0x77, 0x3c,
  0x30, 0x35, 0x82, 0x3e, 0xb4, 0x79, 0x77, 0x3c, 0xb4, 0x79, 0x77, 0x3c,
  0xb4, 0x79, 0x77, 0x3c, 0xb4, 0x79, 0x77, 0x3c, 0xb4, 0x79, 0x77, 0x3c,
  0xb4, 0x79, 0x77, 0x3c, 0xb4, 0x79, 0x77, 0x3c, 0xb4, 0x79, 0x77, 0x3c,
  0xb4, 0x79, 0x77, 0x3c, 0xb4, 0x79, 0x77, 0x3c, 0xb4, 0x79, 0x77, 0x3c,
  0xb4, 0x79, 0x77, 0x3c, 0xb4, 0x79, 0x77, 0x3c, 0xb4, 0x79, 0x77, 0x3c,
  0xb4, 0x79, 0x77, 0x3c, 0xb4, 0x79, 0x77, 0x3c, 0xb4, 0x79, 0x77, 0x3c,
  0xb4, 0x79, 0x77, 0x3c, 0xb4, 0x79, 0x77, 0x3c, 0xb4, 0x79, 0x77, 0x3c,
  0xb4, 0x79, 0x77, 0x3c, 0xb4, 0x79, 0x77, 0x3c, 0xb4, 0x79, 0x77, 0x3c,
  0xb4, 0x79, 0x77, 0x3c, 0xb4, 0x79, 0x77, 0x3c, 0xb4, 0x79, 0x77, 0x3c,
  0xb4, 0x79, 0x77, 0x3c, 0x30, 0x35, 0x82, 0x3e, 0xb4, 0x79, 0x77, 0x3c,
  0xb4, 0x79, 0x77, 0x3c, 0xb4, 0x79, 0x77, 0x3c, 0xb4, 0x79, 0x77, 0x3c,
  0xb4, 0x79, 0x77, 0x3c, 0xb4, 0x79, 0x77, 0x3c, 0xb4, 0x79, 0x77, 0x3c,
  0xb4, 0x79, 0x77, 0x3c, 0xb4, 0x79, 0x77, 0x3c, 0xb4, 0x79, 0x77, 0x3c,
  0xb4, 0x79, 0x77, 0x3c, 0xb4, 0x79, 0x77, 0x3c, 0xb4, 0x79, 0x77, 0x3c,
  0xb4, 0x79, 0x77, 0x3c, 0xb4, 0x79, 0x77, 0x3c, 0xb4, 0x79, 0x77, 0x3c,
  0xb4, 0x79, 0x77, 0x3c, 0xb4, 0x79, 0x77, 0x3c, 0xb4, 0x79, 0x77, 0x3c,
  0xb4, 0x79, 0x77, 0x3c, 0xb4, 0x79, 0x77, 0x3c, 0xb4, 0x79, 0x77, 0x3c,
  0xb4, 0x79, 0x77, 0x3c, 0xb4, 0x79, 0x77, 0x3c, 0xb4, 0x79, 0x77, 0x3c,
  0xb4, 0x79, 0x77, 0x3c, 0xb4, 0x79, 0x77, 0x3c, 0xb4, 0x79, 0x77, 0x3c,
  0xb4, 0x79, 0x77, 0x3c, 0xb4, 0x79, 0x77, 0x3c, 0xb4, 0x79, 0x77, 0x3c,
  0xb4, 0x79, 0x77, 0x3c, 0xb4, 0x79, 0x77, 0x3c, 0xb4, 0x79, 0x77, 0x3c,
  0xb4, 0x79, 0x77, 0x3c, 0xb4, 0x79, 0x77, 0x3c, 0xb4, 0x79, 0x77, 0x3c,
  0xb4, 0x79, 0x77, 0x3c, 0xb4, 0x79, 0x77, 0x3c, 0xb4, 0x79, 0x77, 0x3c,
  0xb4, 0x79, 0x77, 0x3c, 0xb4, 0x79, 0x77, 0x3c, 0xb4, 0x79, 0x77, 0x3c,
  0xb4, 0x79, 0x77, 0x3c, 0xb4, 0x79, 0x77, 0x3c, 0xb4, 0x79, 0x77, 0x3c,
  0xb4, 0x79, 0x77, 0x3c, 0xb4, 0x79, 0x77, 0x3c, 0x30, 0x35, 0x82, 0x3e,
