#ifndef MODEL_Q_H
#define MODEL_Q_H

unsigned char q_model_tflite[] = {
  0x1c, 0x00, 0x00, 0x00, 0x54, 0x46, 0x4c, 0x33, 0x14, 0x00, 0x20, 0x00,
  0x1c, 0x00, 0x18, 0x00, 0x14, 0x00, 0x10, 0x00, 0x0c, 0x00, 0x00, 0x00,
  0x08, 0x00, 0x04, 0x00, 0x14, 0x00, 0x00, 0x00, 0x1c, 0x00, 0x00, 0x00,
  0x80, 0x00, 0x00, 0x00, 0xd8, 0x00, 0x00, 0x00, 0xa4, 0x12, 0x00, 0x00,
  0xb4, 0x12, 0x00, 0x00, 0x5c, 0x1b, 0x00, 0x00, 0x03, 0x00, 0x00, 0x00,
  0x01, 0x00, 0x00, 0x00, 0x04, 0x00, 0x00, 0x00, 0x7e, 0xec, 0xff, 0xff,
  0x0c, 0x00, 0x00, 0x00, 0x1c, 0x00, 0x00, 0x00, 0x38, 0x00, 0x00, 0x00,
  0x0f, 0x00, 0x00, 0x00, 0x73, 0x65, 0x72, 0x76, 0x69, 0x6e, 0x67, 0x5f,
  0x64, 0x65, 0x66, 0x61, 0x75, 0x6c, 0x74, 0x00, 0x01, 0x00, 0x00, 0x00,
  0x04, 0x00, 0x00, 0x00, 0x9c, 0xff, 0xff, 0xff, 0x0c, 0x00, 0x00, 0x00,
  0x04, 0x00, 0x00, 0x00, 0x07, 0x00, 0x00, 0x00, 0x64, 0x65, 0x6e, 0x73,
  0x65, 0x5f, 0x31, 0x00, 0x01, 0x00, 0x00, 0x00, 0x04, 0x00, 0x00, 0x00,
  0xe2, 0xed, 0xff, 0xff, 0x04, 0x00, 0x00, 0x00, 0x07, 0x00, 0x00, 0x00,
  0x69, 0x6e, 0x70, 0x75, 0x74, 0x5f, 0x31, 0x00, 0x02, 0x00, 0x00, 0x00,
  0x34, 0x00, 0x00, 0x00, 0x04, 0x00, 0x00, 0x00, 0xdc, 0xff, 0xff, 0xff,
  0x0f, 0x00, 0x00, 0x00, 0x04, 0x00, 0x00, 0x00, 0x13, 0x00, 0x00, 0x00,
  0x43, 0x4f, 0x4e, 0x56, 0x45, 0x52, 0x53, 0x49, 0x4f, 0x4e, 0x5f, 0x4d,
  0x45, 0x54, 0x41, 0x44, 0x41, 0x54, 0x41, 0x00, 0x08, 0x00, 0x0c, 0x00,
  0x08, 0x00, 0x04, 0x00, 0x08, 0x00, 0x00, 0x00, 0x0e, 0x00, 0x00, 0x00,
  0x04, 0x00, 0x00, 0x00, 0x13, 0x00, 0x00, 0x00, 0x6d, 0x69, 0x6e, 0x5f,
  0x72, 0x75, 0x6e, 0x74, 0x69, 0x6d, 0x65, 0x5f, 0x76, 0x65, 0x72, 0x73,
  0x69, 0x6f, 0x6e, 0x00, 0x10, 0x00, 0x00, 0x00, 0xc8, 0x11, 0x00, 0x00,
  0xc0, 0x11, 0x00, 0x00, 0xa8, 0x11, 0x00, 0x00, 0x88, 0x11, 0x00, 0x00,
  0x64, 0x11, 0x00, 0x00, 0xec, 0x00, 0x00, 0x00, 0xd8, 0x00, 0x00, 0x00,
  0xbc, 0x00, 0x00, 0x00, 0xb4, 0x00, 0x00, 0x00, 0xac, 0x00, 0x00, 0x00,
  0xa4, 0x00, 0x00, 0x00, 0x9c, 0x00, 0x00, 0x00, 0x94, 0x00, 0x00, 0x00,
  0x8c, 0x00, 0x00, 0x00, 0x6c, 0x00, 0x00, 0x00, 0x04, 0x00, 0x00, 0x00,
  0x96, 0xee, 0xff, 0xff, 0x04, 0x00, 0x00, 0x00, 0x58, 0x00, 0x00, 0x00,
  0x0c, 0x00, 0x00, 0x00, 0x08, 0x00, 0x0e, 0x00, 0x08, 0x00, 0x04, 0x00,
  0x08, 0x00, 0x00, 0x00, 0x10, 0x00, 0x00, 0x00, 0x28, 0x00, 0x00, 0x00,
  0x00, 0x00, 0x06, 0x00, 0x08, 0x00, 0x04, 0x00, 0x06, 0x00, 0x00, 0x00,
  0x04, 0x00, 0x00, 0x00, 0x01, 0x00, 0x00, 0x00, 0xeb, 0x03, 0x00, 0x00,
  0x00, 0x00, 0x0a, 0x00, 0x10, 0x00, 0x0c, 0x00, 0x08, 0x00, 0x04, 0x00,
  0x0a, 0x00, 0x00, 0x00, 0x02, 0x00, 0x00, 0x00, 0x02, 0x00, 0x00, 0x00,
  0x04, 0x00, 0x00, 0x00, 0x06, 0x00, 0x00, 0x00, 0x32, 0x2e, 0x31, 0x31,
  0x2e, 0x31, 0x00, 0x00, 0xfa, 0xee, 0xff, 0xff, 0x04, 0x00, 0x00, 0x00,
  0x10, 0x00, 0x00, 0x00, 0x31, 0x2e, 0x31, 0x34, 0x2e, 0x30, 0x00, 0x00,
  0x00, 0x00, 0x00, 0x00, 0x00, 0x00, 0x00, 0x00, 0x70, 0xe6, 0xff, 0xff,
  0x74, 0xe6, 0xff, 0xff, 0x78, 0xe6, 0xff, 0xff, 0x7c, 0xe6, 0xff, 0xff,
  0x80, 0xe6, 0xff, 0xff, 0x84, 0xe6, 0xff, 0xff, 0x2e, 0xef, 0xff, 0xff,
  0x04, 0x00, 0x00, 0x00, 0x09, 0x00, 0x00, 0x00, 0x91, 0x49, 0x7a, 0xfc,
  0x8b, 0x25, 0xe1, 0xe8, 0x7f, 0x00, 0x00, 0x00, 0x46, 0xef, 0xff, 0xff,
  0x04, 0x00, 0x00, 0x00, 0x04, 0x00, 0x00, 0x00, 0x00, 0x00, 0x00, 0x00,
  0x56, 0xef, 0xff, 0xff, 0x04, 0x00, 0x00, 0x00, 0x68, 0x10, 0x00, 0x00,
  0x0f, 0x15, 0xc3, 0xeb, 0xcf, 0x10, 0x0b, 0x39, 0xc0, 0x17, 0x21, 0x02,
  0x17, 0xe1, 0x07, 0x0b, 0x09, 0x01, 0xe9, 0xd5, 0xe1, 0xd6, 0x18, 0x1d,
  0x20, 0x2c, 0xef, 0xe2, 0x13, 0x07, 0x08, 0x32, 0x1a, 0xd1, 0xd1, 0x0d,
  0x2d, 0xe8, 0x24, 0x24, 0xd2, 0x0a, 0xe4, 0x1d, 0x2d, 0x0d, 0x04, 0xd2,
  0x1c, 0x35, 0x21, 0x03, 0x3f, 0xc1, 0xf6, 0x36, 0xde, 0x0a, 0x31, 0x05,
  0xdb, 0xcd, 0x10, 0x22, 0xf5, 0xb8, 0xe9, 0x01, 0x0a, 0x17, 0xd3, 0xdf,
  0x37, 0x1c, 0x14, 0xd6, 0xc6, 0x06, 0x29, 0x00, 0xc3, 0x0f, 0xf0, 0xdd,
  0xee, 0xd8, 0xf0, 0x11, 0xc7, 0xf0, 0x16, 0x27, 0x3e, 0xf4, 0xf8, 0xf0,
  0x1a, 0xba, 0xd0, 0x3a, 0x2e, 0x3d, 0xe2, 0xc7, 0xc6, 0x18, 0xd3, 0x27,
  0xdc, 0xeb, 0xb7, 0xe1, 0xd0, 0x26, 0x07, 0x2e, 0xf1, 0xf5, 0x46, 0xbe,
  0x3a, 0x05, 0xf9, 0xd2, 0xdd, 0x1c, 0xf1, 0xcc, 0x28, 0xf0, 0xe0, 0x3b,
  0x00, 0xb7, 0x02, 0x16, 0xd1, 0x29, 0xe5, 0x11, 0x29, 0xe7, 0xc3, 0xda,
  0xb9, 0xc0, 0xc5, 0xcd, 0x15, 0xd6, 0xe4, 0xc1, 0x19, 0xc7, 0x22, 0x27,
  0xe9, 0xe2, 0xcd, 0x15, 0x00, 0xfd, 0x0e, 0xf1, 0x21, 0xfc, 0x0e, 0xd6,
  0x23, 0x03, 0xec, 0x1d, 0x26, 0x22, 0xf4, 0xbf, 0x00, 0xc8, 0x24, 0x04,
  0x7f, 0x38, 0xae, 0x3a, 0x31, 0xb3, 0x49, 0xf7, 0xcb, 0xea, 0xd1, 0xf8,
  0xb7, 0xd3, 0x19, 0xd4, 0x30, 0xe3, 0xe8, 0xee, 0xeb, 0xfd, 0xeb, 0xf1,
  0xf9, 0xe6, 0x2b, 0x04, 0x1e, 0xf8, 0x34, 0xf8, 0x25, 0x19, 0xcb, 0x0e,
  0x07, 0xea, 0x28, 0xea, 0x38, 0xcc, 0x08, 0x18, 0x15, 0xf6, 0x06, 0xd9,
  0x36, 0x0c, 0x40, 0xe7, 0xf3, 0xf5, 0x39, 0x18, 0x1a, 0xe4, 0xdc, 0x0b,
  0xca, 0xd0, 0xdb, 0xda, 0xf8, 0x1b, 0xe4, 0x18, 0xec, 0xc8, 0xc4, 0x44,
  0x38, 0x3b, 0xe2, 0xd2, 0xd9, 0x3d, 0xab, 0xe2, 0xc0, 0x32, 0xcc, 0xf1,
  0x0b, 0x20, 0x0a, 0xfe, 0x41, 0xf0, 0xe1, 0x04, 0x2b, 0x24, 0x20, 0x26,
  0x17, 0xb8, 0x1d, 0x2a, 0xe2, 0xd4, 0x1f, 0xec, 0xd6, 0xf1, 0xf6, 0xec,
  0xde, 0xd1, 0x04, 0x04, 0xdf, 0xfa, 0xe2, 0x37, 0xe4, 0xfe, 0x2f, 0x21,
  0x25, 0x33, 0xc0, 0x1d, 0xc8, 0x32, 0xe9, 0x0c, 0xdf, 0xff, 0x0d, 0x27,
  0xd4, 0x0f, 0x45, 0xdb, 0xf0, 0x0a, 0xef, 0xcc, 0xcf, 0x15, 0x47, 0x23,
  0x25, 0x01, 0xc6, 0xee, 0x21, 0xe1, 0x19, 0x37, 0xea, 0x11, 0xe0, 0xda,
  0xbe, 0xca, 0x32, 0xd5, 0xe0, 0xcb, 0x26, 0xf1, 0x12, 0x3a, 0xc3, 0x18,
  0x39, 0xd8, 0xdb, 0x3f, 0xc5, 0x41, 0x28, 0x0b, 0x37, 0x21, 0xd7, 0x11,
  0x36, 0xdc, 0xd6, 0xde, 0xca, 0xce, 0xe2, 0x13, 0x15, 0xf5, 0x1c, 0x19,
  0x40, 0x13, 0xe8, 0x01, 0x13, 0x43, 0xeb, 0x2e, 0xcb, 0xfd, 0xe3, 0xc4,
  0x15, 0x1b, 0xdf, 0x31, 0xd0, 0xe9, 0x26, 0xf1, 0xc1, 0xcc, 0x2f, 0x2d,
  0x26, 0x2f, 0x02, 0x37, 0x0e, 0xd3, 0xd8, 0xef, 0x01, 0xc0, 0x14, 0x12,
  0x33, 0x3e, 0xf7, 0xe9, 0xcd, 0x29, 0xf1, 0x21, 0xf2, 0x32, 0xd2, 0xd5,
  0xe5, 0x19, 0x06, 0x0b, 0x1c, 0xde, 0xcc, 0x09, 0xe9, 0x0a, 0x04, 0xee,
  0xee, 0x2d, 0xc3, 0x07, 0xdf, 0xdf, 0x29, 0x10, 0x18, 0x24, 0xf4, 0xf6,
  0x0b, 0xd3, 0xe0, 0x2c, 0x04, 0x0e, 0x45, 0x38, 0x1b, 0xdf, 0x35, 0xbb,
  0xe8, 0xc9, 0xd2, 0xd1, 0x40, 0xe0, 0xee, 0x24, 0x13, 0xc1, 0xbd, 0x2d,
  0xe6, 0xfe, 0x15, 0xf5, 0xdb, 0x02, 0xcd, 0xc6, 0xf9, 0x41, 0x09, 0xcd,
  0x02, 0xc3, 0x16, 0xbf, 0x0c, 0x01, 0x22, 0xea, 0xb1, 0x2e, 0xde, 0x15,
  0xcd, 0xec, 0xe0, 0xef, 0xd6, 0x1d, 0xcd, 0xf5, 0xe8, 0x2d, 0xef, 0xd5,
  0x20, 0x29, 0xe2, 0x2a, 0x37, 0xf7, 0xca, 0x37, 0xf3, 0x16, 0xcb, 0x02,
  0x0d, 0x27, 0xe6, 0xd6, 0xf4, 0x38, 0xf9, 0x17, 0x31, 0x11, 0xde, 0x1e,
  0x03, 0xe8, 0xe6, 0x02, 0x0b, 0xef, 0x20, 0xc4, 0x30, 0x23, 0xe4, 0xe2,
  0xf4, 0x2e, 0x00, 0x07, 0x13, 0x2c, 0xdb, 0xba, 0xf1, 0x14, 0x2c, 0x39,
  0xba, 0x07, 0xc0, 0xc3, 0xe8, 0x29, 0x03, 0x3b, 0xca, 0x24, 0xf6, 0xb9,
  0xd1, 0xd5, 0x06, 0xc2, 0xd0, 0x35, 0x10, 0xfe, 0xcc, 0x06, 0xbb, 0xba,
  0x14, 0xe5, 0x12, 0xd5, 0x27, 0x3e, 0x2a, 0xf1, 0xd4, 0xfc, 0xdc, 0x2c,
  0x06, 0xba, 0x0a, 0xb9, 0x21, 0xca, 0x2a, 0x12, 0xda, 0xce, 0x3f, 0xc9,
  0x25, 0x15, 0xfb, 0xed, 0xc8, 0xd9, 0xea, 0x2b, 0x08, 0x0e, 0x23, 0xda,
  0xf0, 0xf1, 0x11, 0x13, 0x1f, 0xf0, 0xb7, 0x36, 0xd5, 0xd2, 0xf5, 0x21,
  0x00, 0xc6, 0x35, 0x08, 0xf8, 0xff, 0x29, 0xe7, 0x35, 0x04, 0xf9, 0x1a,
  0x23, 0x36, 0xdd, 0xc6, 0x1c, 0x05, 0xe4, 0x01, 0xac, 0xd8, 0x0e, 0xeb,
  0x0a, 0x46, 0x46, 0x21, 0xc8, 0x08, 0xc0, 0xf8, 0xe4, 0xc2, 0xd4, 0x01,
  0x3b, 0xfc, 0xcd, 0xfd, 0xed, 0x09, 0x08, 0x00, 0xc6, 0x2d, 0xd3, 0x0f,
  0xee, 0xe6, 0x10, 0xf6, 0x0e, 0x3b, 0xdd, 0x0d, 0x19, 0xb8, 0xe1, 0x36,
  0xf5, 0xd1, 0xe9, 0xce, 0x12, 0xcf, 0x26, 0x23, 0xcb, 0x19, 0xf9, 0xe0,
  0x09, 0x29, 0x28, 0x1f, 0xdf, 0xfc, 0xdd, 0xef, 0xdc, 0x16, 0x00, 0x2a,
  0x05, 0x3f, 0x0d, 0x10, 0xf1, 0x2e, 0xd5, 0x11, 0xd3, 0xe1, 0x37, 0x34,
  0xf5, 0x0f, 0x38, 0xfa, 0x22, 0x1a, 0x30, 0xd6, 0xb2, 0x2a, 0xd5, 0x1f,
  0x28, 0x29, 0x17, 0xc5, 0x2c, 0xd1, 0xe9, 0x01, 0x37, 0xff, 0xf0, 0xc6,
  0xd5, 0xd6, 0xfd, 0xc6, 0x3a, 0xc7, 0xfb, 0xcd, 0x0f, 0xef, 0x03, 0xb7,
  0xe4, 0xf4, 0xf6, 0xd7, 0x18, 0x0d, 0x07, 0x2d, 0xff, 0xea, 0x23, 0xfb,
  0xd5, 0xd5, 0xfc, 0xed, 0x18, 0x13, 0xcf, 0xdf, 0x14, 0xeb, 0x1f, 0x39,
  0x0a, 0xfa, 0xec, 0x21, 0xc7, 0x22, 0x13, 0x2e, 0xfe, 0xd9, 0xed, 0xc3,
  0xcd, 0xf0, 0x12, 0x2f, 0x1b, 0x21, 0xf6, 0xd0, 0xfd, 0x26, 0x43, 0xd2,
  0x3f, 0xd0, 0xde, 0x0a, 0x26, 0xc8, 0x35, 0x26, 0xf1, 0xe4, 0xe5, 0xe9,
  0xb8, 0xf3, 0xec, 0xc8, 0xde, 0xd1, 0xca, 0x2a, 0x0b, 0x36, 0x1d, 0xe1,
  0xea, 0x3b, 0x3f, 0xc9, 0xd8, 0x0a, 0x2a, 0xf6, 0x01, 0xca, 0x38, 0x3f,
  0xce, 0xe4, 0x2d, 0xf3, 0xb3, 0xfb, 0x05, 0xdd, 0x1d, 0xe9, 0x08, 0x17,
  0xdc, 0x15, 0x04, 0x2f, 0xe5, 0xd5, 0xdd, 0x19, 0xcb, 0xe2, 0xe5, 0xd7,
  0xda, 0x10, 0xd9, 0x36, 0x1f, 0x43, 0x31, 0x1c, 0xc5, 0xe7, 0xfe, 0x22,
  0xc7, 0xe1, 0xeb, 0xef, 0x25, 0x1a, 0x03, 0x18, 0xe4, 0xeb, 0xc0, 0xd9,
  0x3b, 0x1d, 0x34, 0xd0, 0xde, 0x1b, 0x18, 0x06, 0xdd, 0x21, 0x2a, 0xd6,
  0x20, 0xc7, 0x2a, 0xc7, 0xef, 0xbc, 0x10, 0x0a, 0xcb, 0xc1, 0xc7, 0xc8,
  0x21, 0xe0, 0xe0, 0x35, 0xf5, 0xf8, 0xd9, 0x3d, 0xbc, 0xd6, 0xbe, 0x22,
  0xec, 0xcd, 0xcc, 0x2d, 0x26, 0xf0, 0xc0, 0xd7, 0x1f, 0xf6, 0x06, 0x07,
  0x28, 0x1d, 0xea, 0x13, 0xf2, 0x39, 0xca, 0x2a, 0x35, 0xbd, 0xf0, 0x0f,
  0x1f, 0x04, 0xde, 0xdf, 0xe8, 0xda, 0x12, 0x25, 0xf8, 0xc3, 0x29, 0x2c,
  0xcd, 0x1b, 0x36, 0xd5, 0xbd, 0xd7, 0xb8, 0x09, 0x13, 0xe0, 0xd6, 0xef,
  0xe8, 0x20, 0x22, 0xc6, 0x12, 0x0d, 0xf8, 0xe1, 0xf0, 0x02, 0x3b, 0x2c,
  0x35, 0x16, 0x3a, 0xba, 0xf7, 0xcd, 0xfe, 0xb8, 0xd3, 0xbb, 0xd8, 0xcb,
  0xb7, 0x28, 0x0c, 0x00, 0x20, 0x19, 0xd3, 0x2b, 0x2f, 0xf3, 0x18, 0xc1,
  0x27, 0xd9, 0x02, 0xcf, 0x03, 0x1f, 0xf9, 0xf9, 0x0b, 0xfa, 0x1d, 0xdd,
  0x2d, 0xfa, 0x12, 0xe4, 0xff, 0xde, 0x0c, 0x08, 0x1e, 0x18, 0x25, 0x34,
  0x29, 0xeb, 0xf3, 0xce, 0x49, 0xce, 0x06, 0xfa, 0x04, 0xe1, 0x36, 0xd9,
  0x33, 0x13, 0x26, 0xfd, 0x13, 0x07, 0xd9, 0x08, 0xb9, 0x25, 0xcd, 0xce,
  0xf8, 0xf1, 0x34, 0xb5, 0x02, 0x13, 0x26, 0x4c, 0x0d, 0xd2, 0x1a, 0xc8,
  0x01, 0x0c, 0x4e, 0xfd, 0xe9, 0x10, 0x0c, 0x14, 0xc9, 0xc7, 0xfb, 0x19,
  0xf8, 0x0e, 0xb0, 0xdb, 0xe2, 0xf3, 0x19, 0x14, 0x1d, 0xe3, 0xda, 0x09,
  0x33, 0xf1, 0x29, 0x21, 0xdd, 0xd1, 0xdc, 0xec, 0x2e, 0xb6, 0xfa, 0x31,
  0xb6, 0x19, 0x04, 0xd0, 0xce, 0xf6, 0x0b, 0x0a, 0xc9, 0xcf, 0xef, 0x0f,
  0xac, 0xb4, 0xc8, 0x19, 0x30, 0x0d, 0xee, 0x1d, 0xd3, 0xff, 0xb2, 0xc8,
  0xce, 0x21, 0x11, 0xd9, 0xe0, 0xc8, 0x23, 0x2b, 0x2b, 0x28, 0x38, 0x3b,
  0xbf, 0x2d, 0x38, 0xfe, 0x04, 0xca, 0x0b, 0xcc, 0xe3, 0xc9, 0x33, 0xc7,
  0x15, 0x28, 0xea, 0x1e, 0x1d, 0xeb, 0xc8, 0xeb, 0xd0, 0xec, 0x0f, 0xd6,
  0xe0, 0xe8, 0x35, 0x3e, 0xf8, 0x1f, 0x34, 0x1c, 0xf9, 0xe9, 0xf4, 0x06,
  0xe6, 0x0e, 0x18, 0x2a, 0xfe, 0xeb, 0x1b, 0x04, 0x37, 0x16, 0xda, 0x2c,
  0xe3, 0x05, 0x1e, 0x3a, 0xe5, 0x44, 0xdd, 0x12, 0x3a, 0xfa, 0xdf, 0x47,
  0xf2, 0x12, 0xff, 0xe3, 0x0a, 0x2d, 0x1c, 0xbb, 0xb5, 0xca, 0x20, 0x08,
  0xdc, 0xc9, 0xe1, 0xdd, 0x0c, 0x2b, 0xf1, 0xf1, 0xe9, 0x17, 0x2f, 0xff,
  0xed, 0x18, 0xf1, 0xc7, 0xc3, 0xc5, 0xf5, 0x34, 0xd9, 0x13, 0x09, 0xf5,
  0x03, 0xf1, 0x1e, 0xfc, 0xbf, 0xc3, 0x01, 0xf4, 0xd1, 0x16, 0xf9, 0x37,
  0xe6, 0x13, 0x12, 0xe0, 0xd1, 0x2f, 0xe6, 0x2c, 0xf2, 0x2a, 0xd0, 0x2d,
  0xf3, 0xf6, 0xf4, 0x34, 0x12, 0x09, 0xd0, 0xcd, 0x40, 0x3a, 0x02, 0x31,
  0xd7, 0xe3, 0x43, 0xdd, 0xfc, 0x07, 0x13, 0xfd, 0xe0, 0xea, 0x32, 0xd2,
  0xc1, 0x45, 0x27, 0xcc, 0x18, 0x2b, 0x0b, 0xc9, 0xf0, 0xe0, 0x36, 0xc8,
  0x42, 0xe4, 0x22, 0x08, 0x27, 0xc3, 0xd0, 0x3a, 0xc9, 0xe5, 0x01, 0x1d,
  0x26, 0x14, 0x36, 0x3e, 0xc0, 0xdc, 0x2e, 0xd0, 0xd2, 0xd7, 0xfc, 0x2d,
  0xec, 0xdd, 0xd2, 0xcb, 0x23, 0xff, 0x3e, 0xef, 0xd3, 0x46, 0x11, 0x0c,
  0xdc, 0xe3, 0x20, 0xd0, 0xd1, 0x3a, 0xea, 0x12, 0x31, 0x34, 0x1e, 0xfb,
  0x36, 0xbe, 0xc3, 0x03, 0x32, 0xd9, 0x3c, 0x3d, 0x30, 0x3d, 0x22, 0x47,
  0x27, 0x33, 0x39, 0x35, 0xcf, 0xe4, 0x23, 0x37, 0x2c, 0x44, 0xe4, 0xe9,
  0x21, 0x20, 0xd7, 0x3f, 0x3b, 0x34, 0x1e, 0x2e, 0x21, 0xc5, 0xdf, 0x01,
  0xda, 0xea, 0x1b, 0xe9, 0xfc, 0xce, 0x40, 0x46, 0xef, 0x2e, 0x3c, 0xc3,
  0x35, 0x3f, 0x36, 0x12, 0x11, 0x0d, 0x00, 0x02, 0xf2, 0xbf, 0x2d, 0x3a,
  0xfd, 0xf9, 0x0c, 0x37, 0x10, 0x0f, 0x42, 0x04, 0x44, 0x3d, 0xcd, 0x25,
  0xe8, 0x29, 0xe1, 0x0c, 0xf4, 0xe0, 0xe8, 0x02, 0xdf, 0x45, 0x1e, 0x03,
  0x35, 0x41, 0xd5, 0x35, 0xe7, 0x09, 0xf3, 0x1e, 0xdf, 0x21, 0xf0, 0x11,
  0x86, 0x39, 0x1d, 0xc4, 0x45, 0x22, 0x0a, 0xcc, 0xd8, 0x23, 0xb8, 0xda,
  0x0f, 0x11, 0xc9, 0xbb, 0xb7, 0x40, 0xf4, 0xcd, 0xeb, 0x19, 0xc1, 0x27,
  0x11, 0xfb, 0xe1, 0x29, 0x14, 0xea, 0xfb, 0xc5, 0xf3, 0x1e, 0x23, 0xea,
  0x13, 0x0a, 0x21, 0xe6, 0x1e, 0xcb, 0x2c, 0x9b, 0xe7, 0x36, 0xda, 0xcb,
  0xd7, 0x9e, 0x0c, 0x12, 0xd6, 0xfe, 0x15, 0xc9, 0xbf, 0x28, 0xe9, 0x10,
  0xd6, 0xd0, 0x01, 0xe8, 0xe4, 0x08, 0xe3, 0x15, 0x37, 0xbb, 0xee, 0xe3,
  0x39, 0xf5, 0x37, 0xfb, 0xb7, 0xec, 0x06, 0xc5, 0xf6, 0x4b, 0x4d, 0xbb,
  0x18, 0x34, 0xbe, 0x2c, 0x37, 0x0c, 0xef, 0xd2, 0x38, 0xd4, 0x07, 0x13,
  0xd5, 0x4b, 0x37, 0x28, 0xfe, 0x0c, 0xd7, 0xea, 0x0a, 0xe1, 0x1c, 0xd6,
  0x28, 0x0a, 0xed, 0x47, 0xf2, 0xdd, 0xd4, 0xf0, 0xe9, 0xd3, 0xdf, 0xfe,
  0xf0, 0xc4, 0x37, 0x3f, 0x22, 0xe1, 0x04, 0x4b, 0xe6, 0xe4, 0x00, 0xc2,
  0x29, 0x28, 0x26, 0x43, 0xeb, 0x3b, 0xe4, 0xde, 0xdd, 0xf7, 0xcc, 0xe5,
  0x20, 0xc9, 0xee, 0xc2, 0x26, 0xc4, 0x2d, 0x1c, 0x18, 0xf7, 0xee, 0x28,
  0xd3, 0x41, 0x39, 0x11, 0x20, 0xf0, 0xcf, 0xc9, 0xc6, 0xdf, 0x2d, 0x3d,
  0xe3, 0x38, 0xee, 0xd6, 0x41, 0xe8, 0xfa, 0xf4, 0xd0, 0x41, 0xe9, 0x26,
  0xd6, 0x35, 0xc6, 0x4a, 0xe3, 0xf0, 0xce, 0x02, 0x15, 0x13, 0xec, 0xfa,
  0x29, 0x2a, 0xec, 0xf8, 0xd4, 0xf6, 0x37, 0x1a, 0x26, 0x21, 0xe3, 0x3b,
  0xf2, 0x05, 0x48, 0x15, 0xd1, 0xdf, 0xb9, 0xe3, 0x1d, 0x22, 0xd6, 0x1c,
  0x28, 0x16, 0xd1, 0xf0, 0xfb, 0xef, 0xd2, 0x00, 0xf3, 0x2d, 0xaf, 0x04,
  0xb8, 0x02, 0xc6, 0x25, 0x10, 0x07, 0xf5, 0x33, 0xc6, 0xf8, 0xdc, 0x1b,
  0xd9, 0x42, 0x27, 0x11, 0xf4, 0xff, 0xdd, 0x17, 0x00, 0x05, 0xf5, 0xee,
  0x32, 0x26, 0x0f, 0xd0, 0x20, 0xbf, 0x2b, 0xc1, 0xe0, 0xcd, 0xfc, 0x1a,
  0x2d, 0xd6, 0xfb, 0x02, 0xe2, 0x0d, 0xd7, 0x41, 0xf3, 0xec, 0xfe, 0x34,
  0x21, 0x08, 0xd0, 0xec, 0xfa, 0xfc, 0xe4, 0xf7, 0xf4, 0xde, 0x3b, 0x31,
  0xe2, 0x20, 0xf8, 0xc5, 0x21, 0xfb, 0x1b, 0xf7, 0x3d, 0xc3, 0xdb, 0x42,
  0x28, 0x17, 0x28, 0x3c, 0x15, 0x1d, 0xd7, 0x09, 0x05, 0x4a, 0x12, 0xcf,
  0xd4, 0x27, 0xda, 0x42, 0xdb, 0xd9, 0xdc, 0xc7, 0x2f, 0xcb, 0xca, 0x0f,
  0x2d, 0x00, 0x14, 0x2f, 0x27, 0x35, 0x01, 0x2c, 0xd1, 0x26, 0xe5, 0xf6,
  0x0f, 0x4b, 0xde, 0xed, 0xf0, 0x15, 0x2e, 0x35, 0xe7, 0x01, 0x35, 0x28,
  0x17, 0x30, 0xe7, 0xfd, 0x0e, 0x3d, 0xc4, 0xdb, 0x2a, 0xd6, 0x01, 0xff,
  0x02, 0x31, 0xe5, 0x2a, 0xcd, 0x0a, 0x13, 0xd3, 0x52, 0x0a, 0x3f, 0xd0,
  0xe7, 0x0a, 0x32, 0x01, 0xc9, 0x01, 0x0c, 0x21, 0xf7, 0x0b, 0x00, 0xe4,
  0x46, 0x05, 0xd8, 0xd0, 0x2c, 0x03, 0x0c, 0xdc, 0xce, 0x3f, 0xf1, 0x07,
  0xef, 0xf7, 0xdc, 0x30, 0xd6, 0xfd, 0x02, 0x04, 0xd8, 0x40, 0xeb, 0x0d,
  0xf6, 0x12, 0x34, 0x47, 0x06, 0x35, 0xd9, 0x1e, 0x16, 0x23, 0xc8, 0xf6,
  0xbe, 0x37, 0x3a, 0x42, 0x4d, 0x0e, 0x22, 0x0a, 0x15, 0x28, 0x37, 0xe0,
  0xd3, 0x11, 0x03, 0x0e, 0x20, 0xde, 0x27, 0xc4, 0xf3, 0x48, 0xdd, 0xe7,
  0x2e, 0xbe, 0x3d, 0xe8, 0xfb, 0x00, 0xe2, 0xcd, 0x1b, 0x20, 0xe3, 0x08,
  0xd7, 0xfd, 0x05, 0xf8, 0xf2, 0xf9, 0x07, 0x04, 0xfc, 0x34, 0x28, 0x01,
  0xd5, 0xb1, 0xea, 0x38, 0x16, 0xda, 0x17, 0x04, 0x36, 0xc6, 0xf6, 0xe6,
  0xd4, 0xde, 0xda, 0xf8, 0x32, 0xe1, 0xeb, 0xc7, 0xf8, 0xd9, 0xe7, 0x20,
  0xd0, 0x25, 0x0e, 0xd4, 0x00, 0xce, 0x51, 0xcc, 0xee, 0xd3, 0x44, 0xba,
  0x47, 0x14, 0xd9, 0x26, 0x31, 0x10, 0xc4, 0x2f, 0xfc, 0x4b, 0x32, 0xf5,
  0x50, 0xf3, 0x54, 0x27, 0xce, 0xc8, 0xd5, 0x31, 0xcb, 0xe0, 0x39, 0xf4,
  0x1c, 0x2e, 0x07, 0x3a, 0xcd, 0x44, 0x45, 0xf1, 0x42, 0xda, 0xd4, 0x2d,
  0x40, 0xef, 0xe8, 0x24, 0x3c, 0xe6, 0x13, 0x12, 0x18, 0xcf, 0x1b, 0x3a,
  0x12, 0xd3, 0x2d, 0xd9, 0x04, 0x22, 0x1a, 0xdd, 0x36, 0xc2, 0x38, 0x14,
  0xef, 0x0e, 0xd8, 0x2c, 0x21, 0xfc, 0xeb, 0x1a, 0xd2, 0xdb, 0x41, 0x4a,
  0xd1, 0x3d, 0x39, 0x21, 0x1b, 0xe4, 0x0a, 0x24, 0xf9, 0x11, 0x13, 0xfd,
  0xee, 0x08, 0x0b, 0xf9, 0x09, 0xde, 0xde, 0xcb, 0xfc, 0x15, 0xd4, 0x14,
  0x0a, 0xc7, 0xf3, 0x11, 0xdb, 0xf8, 0x22, 0xc9, 0x42, 0x43, 0xf0, 0x38,
  0x15, 0xf2, 0xf3, 0x22, 0xff, 0x07, 0xc8, 0xcd, 0x4b, 0xc3, 0x2f, 0x39,
  0x2a, 0x4a, 0x24, 0xcb, 0xf7, 0xdc, 0xc2, 0x0d, 0x3c, 0x0f, 0x3a, 0xe7,
  0xe4, 0x24, 0x0d, 0xd0, 0xdf, 0x1a, 0xec, 0xee, 0x1e, 0x3a, 0xcb, 0x23,
  0x0e, 0x1c, 0xdd, 0x3e, 0x0c, 0x13, 0xcc, 0xfa, 0x32, 0xce, 0xd4, 0x06,
  0xe9, 0x28, 0x28, 0x2d, 0xbe, 0x18, 0x05, 0xb9, 0x02, 0x2e, 0x1f, 0x2f,
  0xfa, 0x08, 0xe7, 0xc2, 0x1d, 0x0f, 0x3c, 0x29, 0xe4, 0x1f, 0xf8, 0xe1,
  0x0c, 0x35, 0xd0, 0x01, 0xff, 0x38, 0x07, 0x27, 0xc7, 0x17, 0xe6, 0x16,
  0xdb, 0x23, 0x0f, 0x06, 0x38, 0xc8, 0xe4, 0xef, 0x3f, 0xdc, 0xe2, 0xde,
  0x3b, 0xea, 0x01, 0x2e, 0xf8, 0x32, 0x23, 0xf2, 0x3a, 0x2c, 0xe2, 0xfd,
  0xca, 0xc9, 0x18, 0xfb, 0x05, 0xe3, 0xf0, 0xb2, 0x1d, 0xe8, 0xdb, 0x42,
  0xd3, 0xdf, 0x17, 0x05, 0x01, 0x2e, 0xcd, 0xef, 0xc3, 0xcc, 0x0a, 0x20,
  0x30, 0x1d, 0x02, 0xfa, 0x06, 0xed, 0x15, 0x37, 0x1a, 0xd4, 0xb9, 0xce,
  0xd8, 0x20, 0xe4, 0xeb, 0xcb, 0xef, 0x1d, 0xc4, 0x37, 0xf6, 0xf5, 0x18,
  0xca, 0xf8, 0x2a, 0x34, 0x33, 0xd5, 0xff, 0x2f, 0x33, 0x05, 0xc8, 0x05,
  0x2f, 0x05, 0xef, 0xda, 0x1a, 0xe6, 0xcc, 0xca, 0xd2, 0xb9, 0xfa, 0xf7,
  0xf7, 0xc1, 0xfb, 0xf2, 0x0c, 0xda, 0x3f, 0x16, 0x00, 0xd9, 0xfb, 0xb8,
  0x07, 0x19, 0xc9, 0x36, 0x0f, 0xdd, 0xcb, 0x05, 0xf8, 0xcd, 0x28, 0x0e,
  0x2c, 0x03, 0xa9, 0xff, 0x01, 0xfe, 0x37, 0xff, 0xbc, 0x27, 0xd0, 0xd4,
  0xe2, 0xcf, 0xd9, 0xcf, 0xe7, 0x14, 0xeb, 0xdf, 0x23, 0xde, 0xfe, 0xf3,
  0x49, 0xd3, 0xeb, 0x01, 0x0e, 0xeb, 0xcf, 0xfd, 0xcc, 0x2a, 0x43, 0x40,
  0xce, 0xf2, 0x2c, 0x2d, 0x1d, 0xd7, 0xd6, 0xe0, 0x1b, 0xd8, 0x41, 0xd0,
  0xf8, 0x1d, 0x3a, 0x1a, 0x11, 0x38, 0x2b, 0xcd, 0x2a, 0x09, 0x26, 0xc7,
  0x12, 0xc4, 0xd0, 0xf3, 0x07, 0xdb, 0x0c, 0x38, 0xd4, 0xf0, 0x13, 0x29,
  0xf9, 0x2a, 0x2c, 0x39, 0xe4, 0x1d, 0xf1, 0xcd, 0xfd, 0xfd, 0xfb, 0xea,
  0xda, 0xfd, 0xc5, 0xd6, 0xcf, 0x0d, 0xe1, 0xe6, 0xe0, 0xf4, 0xd8, 0xff,
  0xc3, 0xd4, 0x24, 0xf6, 0xde, 0x1e, 0x21, 0x05, 0xe9, 0xe3, 0xd1, 0x0d,
  0x22, 0x16, 0xef, 0x3b, 0x1e, 0xef, 0xe2, 0x43, 0xc0, 0x19, 0xc5, 0x06,
  0x27, 0x1e, 0x26, 0x11, 0xec, 0x41, 0x08, 0xd9, 0x00, 0xde, 0xbe, 0x2c,
  0x37, 0xe5, 0x0a, 0xe1, 0xd6, 0xbd, 0x1e, 0x0c, 0xce, 0xee, 0x14, 0xcd,
  0xc4, 0xde, 0xc4, 0xba, 0xbf, 0xd3, 0x27, 0xe7, 0x16, 0xd9, 0x09, 0x2c,
  0xfa, 0xf6, 0x4a, 0xe9, 0x22, 0x00, 0x0a, 0xec, 0x2b, 0xf7, 0x44, 0xcd,
  0x05, 0xd8, 0xd1, 0x3e, 0x1e, 0x27, 0xf0, 0x06, 0xe2, 0x0e, 0x1a, 0xbe,
  0x0f, 0xe6, 0x15, 0xca, 0x33, 0xea, 0x35, 0xcc, 0x30, 0xc3, 0x0d, 0xbe,
  0x01, 0xc5, 0xda, 0xfe, 0xe8, 0xcb, 0xf4, 0x33, 0xee, 0xd9, 0xd4, 0x31,
  0xcb, 0xed, 0xd6, 0xe8, 0x28, 0xca, 0x2f, 0x28, 0xf0, 0xb7, 0x1e, 0x13,
  0x21, 0x35, 0xf1, 0xe2, 0xf0, 0x0a, 0xce, 0xff, 0x1e, 0xda, 0x2c, 0xfa,
  0x26, 0xd6, 0xd2, 0xea, 0xf0, 0x15, 0xcc, 0xca, 0xbc, 0x32, 0x37, 0x16,
  0xb5, 0x1d, 0x34, 0xdf, 0x25, 0x30, 0xe1, 0x37, 0xfe, 0x35, 0xff, 0xc5,
  0x20, 0x0d, 0xfc, 0x22, 0xcd, 0xfb, 0x03, 0xd4, 0xee, 0xda, 0x47, 0x00,
  0x2d, 0xfe, 0x09, 0x03, 0x30, 0x15, 0x04, 0xc6, 0x15, 0x16, 0x2f, 0xc4,
  0xec, 0xf1, 0xe7, 0x17, 0xc5, 0xea, 0x31, 0xf1, 0xcb, 0xb4, 0x3b, 0xe4,
  0x3d, 0x27, 0xd0, 0x31, 0xdd, 0xf0, 0xfc, 0xcd, 0xdd, 0x31, 0xd2, 0xc1,
  0xdc, 0x11, 0x2f, 0x03, 0xd0, 0xda, 0xcf, 0xec, 0xe5, 0xeb, 0xe9, 0x0c,
  0xe3, 0xc1, 0x1f, 0xf8, 0xe2, 0xd2, 0xff, 0x20, 0xf1, 0x3a, 0xed, 0x27,
  0xfe, 0xe9, 0x42, 0x0c, 0xf3, 0x02, 0xc3, 0xf0, 0x1d, 0xb4, 0xc9, 0xd1,
  0x0c, 0xc8, 0xce, 0x1b, 0x1d, 0xe1, 0xd5, 0xea, 0x35, 0xfc, 0xec, 0x18,
  0xf3, 0xe7, 0x39, 0x06, 0x25, 0xde, 0xd2, 0xfc, 0xfd, 0xd7, 0xd2, 0x12,
  0xda, 0xf5, 0xb7, 0xb9, 0x08, 0xf1, 0xd7, 0xfb, 0x36, 0x0d, 0x15, 0x1a,
  0xda, 0x2e, 0x0d, 0xd9, 0x09, 0x2f, 0x2d, 0x20, 0x25, 0xc5, 0xd4, 0x3b,
  0x43, 0xc3, 0xf3, 0x13, 0xd9, 0xe3, 0xd2, 0x11, 0x06, 0xba, 0xc6, 0x0f,
  0x2c, 0x2a, 0xc1, 0x0b, 0xf2, 0x0c, 0xc3, 0xe6, 0x2b, 0x34, 0xe3, 0x27,
  0x06, 0xd4, 0x3c, 0x08, 0xd2, 0x18, 0x1e, 0x21, 0x34, 0x2f, 0xf4, 0xc7,
  0xd2, 0x08, 0xc8, 0xfb, 0xf2, 0x24, 0xbc, 0x15, 0x19, 0xf5, 0x0f, 0x16,
  0x13, 0x0d, 0xe6, 0x10, 0x10, 0xed, 0xe1, 0x37, 0x36, 0x2f, 0xfb, 0x13,
  0x71, 0x30, 0xf4, 0xc5, 0xff, 0x2c, 0xcf, 0xcc, 0x1d, 0x09, 0x44, 0xdb,
  0x03, 0x1d, 0x0b, 0x24, 0x38, 0x31, 0x25, 0xd2, 0x1b, 0xcd, 0x39, 0xf9,
  0xde, 0xce, 0xef, 0xeb, 0xfb, 0x33, 0xe0, 0x37, 0xdf, 0xd9, 0xf5, 0x2f,
  0x1b, 0x02, 0xcf, 0xbc, 0xe2, 0xe7, 0xeb, 0xe1, 0x21, 0xe7, 0x2c, 0xcd,
  0xe3, 0x27, 0x42, 0xeb, 0xfc, 0x08, 0xd6, 0xc5, 0xcb, 0x0a, 0xc2, 0xcb,
  0xf2, 0xca, 0xd6, 0xe1, 0x0b, 0xe3, 0xf6, 0xef, 0x1b, 0x08, 0x25, 0xdf,
  0xc7, 0xcf, 0x0a, 0xd8, 0xf4, 0xd8, 0x24, 0x13, 0x21, 0xf4, 0xc6, 0x0f,
  0xd6, 0x44, 0x2d, 0xd2, 0xd2, 0x24, 0x2b, 0x0e, 0x21, 0x09, 0xf0, 0x13,
  0x1c, 0x33, 0xe3, 0xca, 0xb8, 0xf3, 0xca, 0x21, 0xd3, 0xf5, 0xc1, 0xf0,
  0xe9, 0x33, 0x30, 0xf7, 0xb9, 0xbc, 0xdc, 0x34, 0xf1, 0x1d, 0xbf, 0xd9,
  0xc3, 0x01, 0x17, 0x11, 0x21, 0xfb, 0x27, 0x34, 0xbc, 0xe9, 0xea, 0xea,
  0xef, 0xd1, 0xcd, 0x06, 0x0f, 0x01, 0x25, 0xd3, 0xf9, 0xd6, 0x26, 0xfd,
  0xbf, 0xcf, 0xb9, 0xce, 0x0e, 0x16, 0xea, 0xc3, 0xfd, 0x04, 0x0c, 0x0d,
  0xda, 0xc7, 0x0e, 0x05, 0x0d, 0xf2, 0xfe, 0xcf, 0x0e, 0xf9, 0xfb, 0xc1,
  0x1c, 0x33, 0x1f, 0xf2, 0xd0, 0xcf, 0x04, 0x17, 0x09, 0xe2, 0xd5, 0xcd,
  0x2d, 0xd9, 0x0f, 0x15, 0x2c, 0x18, 0xcd, 0xf7, 0xf8, 0xb4, 0x3b, 0xd6,
  0x1c, 0xfb, 0xcf, 0xd2, 0x2d, 0x3d, 0xf3, 0x39, 0xc8, 0xd3, 0xd1, 0xef,
  0xdd, 0x25, 0x10, 0xcc, 0x15, 0xce, 0xfc, 0xfc, 0xc9, 0x21, 0xf9, 0xc7,
  0x05, 0xd9, 0x0c, 0x32, 0x15, 0xe2, 0x16, 0xf7, 0x24, 0xfe, 0xd1, 0x36,
  0xd5, 0x08, 0x29, 0x38, 0xd4, 0xf2, 0x02, 0x32, 0x22, 0xf8, 0xf4, 0xef,
  0xd3, 0xc8, 0x43, 0xb4, 0x19, 0xc1, 0x21, 0x34, 0x26, 0x08, 0xc9, 0x2f,
  0xf5, 0xd9, 0x27, 0x1c, 0xcf, 0xfb, 0x05, 0xc1, 0x21, 0x1c, 0xd4, 0xcc,
  0x3b, 0xe1, 0x2b, 0xff, 0x31, 0x35, 0xd8, 0xc1, 0xfd, 0x1c, 0xf6, 0xbc,
  0x0a, 0xdb, 0xb4, 0xc7, 0xdf, 0x17, 0x02, 0xe7, 0xf0, 0xed, 0x21, 0xe7,
  0xfc, 0xf7, 0xdd, 0x39, 0x3f, 0xcc, 0x32, 0xbe, 0x08, 0x2c, 0x08, 0xd9,
  0x24, 0x23, 0xf8, 0x08, 0xca, 0xb9, 0x2a, 0xd0, 0xba, 0xfc, 0xc1, 0x14,
  0xec, 0x27, 0x40, 0xfc, 0x0e, 0x06, 0xd0, 0xc1, 0xd7, 0x0e, 0x1c, 0x02,
  0xdd, 0xec, 0x16, 0xd9, 0x06, 0xc6, 0x37, 0xc4, 0x0f, 0x3e, 0x04, 0xff,
  0x15, 0x2e, 0xcd, 0xec, 0xd3, 0x03, 0x17, 0xfa, 0xda, 0x0a, 0xc7, 0xcb,
  0x0d, 0xcc, 0xba, 0xeb, 0xf6, 0xf2, 0x3e, 0xf2, 0x39, 0xdf, 0x35, 0x12,
  0xe9, 0x14, 0x24, 0xcf, 0xde, 0x00, 0x13, 0xf3, 0x28, 0x0c, 0x26, 0x17,
  0x09, 0xdd, 0xda, 0xe0, 0x18, 0xcb, 0x0f, 0xfc, 0xef, 0x1f, 0xf7, 0xeb,
  0x15, 0xec, 0xc1, 0xc8, 0x38, 0xcf, 0x1a, 0xf5, 0xe0, 0x0c, 0xf8, 0xed,
  0x36, 0x0c, 0xfc, 0x11, 0xce, 0x02, 0xd5, 0xe8, 0xcf, 0xfd, 0xe3, 0x13,
  0x08, 0x00, 0x1b, 0x34, 0x14, 0x24, 0xd9, 0x20, 0x3a, 0xf9, 0xf1, 0x04,
  0x22, 0x41, 0xf2, 0xfa, 0xbd, 0xd4, 0xe4, 0xe5, 0xc6, 0x28, 0xe6, 0xf9,
  0x13, 0x40, 0x1c, 0xf8, 0x09, 0x25, 0x04, 0xd5, 0xf2, 0xca, 0x02, 0xd0,
  0x05, 0xf6, 0xfb, 0x08, 0xd9, 0xbb, 0x36, 0xf0, 0xcc, 0xe7, 0x14, 0xf6,
  0x23, 0xe7, 0xfd, 0xd6, 0x38, 0xf0, 0xca, 0x48, 0xa3, 0xea, 0xea, 0x0b,
  0xea, 0x54, 0x18, 0xf0, 0x23, 0xe3, 0xe6, 0xca, 0xc8, 0xc7, 0x12, 0x1a,
  0xe0, 0xc2, 0xfe, 0xd5, 0x26, 0x19, 0xff, 0x1e, 0xeb, 0x42, 0xb5, 0x35,
  0x21, 0x15, 0xfc, 0x04, 0x00, 0x3b, 0xb8, 0xff, 0xf0, 0xcf, 0xea, 0x15,
  0x0f, 0x1c, 0x3b, 0x37, 0x3d, 0xe2, 0x05, 0x36, 0xf9, 0x10, 0x1a, 0x10,
  0x1e, 0xd8, 0xc1, 0x0d, 0x01, 0xc1, 0x1e, 0xc7, 0x22, 0xbb, 0xdc, 0x35,
  0x40, 0x14, 0xf1, 0x29, 0xe3, 0x09, 0xdd, 0x07, 0xe3, 0x11, 0xcf, 0xf2,
  0xe2, 0xea, 0xd4, 0x12, 0xea, 0xc4, 0xcd, 0xee, 0xc0, 0xd5, 0x14, 0x10,
  0x34, 0xd4, 0x0a, 0x14, 0xdf, 0x39, 0x0b, 0x03, 0x19, 0xff, 0xe3, 0xd5,
  0x27, 0xe0, 0x0e, 0xe3, 0x30, 0xc5, 0x45, 0x24, 0x2e, 0xfe, 0xd6, 0x06,
  0x07, 0x26, 0xb5, 0xe3, 0xee, 0x23, 0xc8, 0x09, 0x08, 0xe1, 0xe5, 0xe1,
  0xfd, 0x2a, 0xff, 0xf1, 0x18, 0xfd, 0xcc, 0x09, 0x26, 0xec, 0xc1, 0x01,
  0x20, 0xf7, 0xcc, 0xef, 0xd4, 0x34, 0xeb, 0x33, 0xc1, 0x11, 0xcb, 0x06,
  0x0f, 0x15, 0xe2, 0xfe, 0x13, 0x3e, 0x39, 0xe0, 0xf0, 0x3d, 0xfd, 0xd7,
  0xdb, 0x37, 0xcd, 0x42, 0x39, 0xc1, 0x3f, 0x12, 0xe7, 0xcf, 0xcb, 0xf2,
  0xbf, 0xe5, 0x22, 0xeb, 0xfb, 0x02, 0x10, 0xeb, 0x32, 0x0b, 0xd4, 0x1b,
  0x07, 0xfd, 0xf3, 0xfe, 0xde, 0x09, 0x44, 0xfb, 0xe6, 0x3b, 0x01, 0xd2,
  0x1c, 0xdb, 0x12, 0x35, 0xcd, 0xd7, 0x22, 0x29, 0xff, 0x24, 0xf5, 0x33,
  0xc3, 0xfc, 0x23, 0x1c, 0xc1, 0xf2, 0x1d, 0xeb, 0x2b, 0x13, 0x12, 0x23,
  0x38, 0xca, 0xe9, 0x0c, 0xe1, 0xea, 0xf3, 0xbc, 0x0c, 0x28, 0x10, 0x16,
  0xf7, 0xc2, 0xd3, 0xe8, 0x2d, 0x00, 0x34, 0xe7, 0x32, 0xbf, 0xfc, 0x10,
  0xdd, 0xca, 0xc3, 0x14, 0xc8, 0xf4, 0xd8, 0xc9, 0xd8, 0xcf, 0xde, 0x21,
  0xe6, 0x0b, 0xe7, 0xf8, 0x02, 0xc0, 0x1b, 0xdb, 0xd7, 0x24, 0x02, 0xdd,
  0x1d, 0xe6, 0xc8, 0xf3, 0xfb, 0x3d, 0xcc, 0x3e, 0x3e, 0xbd, 0x21, 0x0f,
  0x39, 0x26, 0xd3, 0xd3, 0x38, 0x07, 0xc7, 0x0d, 0xc9, 0x1b, 0xfd, 0x20,
  0x16, 0x0e, 0xcd, 0xd1, 0x41, 0x1c, 0xdc, 0xed, 0x24, 0xce, 0xc8, 0xca,
  0xf9, 0xdb, 0xd7, 0x03, 0xf7, 0xc7, 0x28, 0x06, 0xfc, 0x1a, 0x39, 0xeb,
  0xca, 0xc6, 0x10, 0xc6, 0xde, 0xba, 0x32, 0x0f, 0xb0, 0xb2, 0x07, 0x33,
  0x1a, 0xf5, 0x21, 0x1b, 0xec, 0xea, 0xd2, 0x43, 0xc6, 0x2e, 0xc8, 0x1c,
  0x0f, 0xec, 0xf4, 0xc9, 0x07, 0x08, 0x36, 0x14, 0xc3, 0xec, 0x29, 0x15,
  0x29, 0x1b, 0x11, 0x2a, 0xeb, 0x15, 0x03, 0xce, 0xbc, 0x37, 0xbd, 0x1a,
  0x29, 0x29, 0x2e, 0xce, 0xd5, 0xc2, 0x0c, 0x0f, 0x05, 0x19, 0xc4, 0xe5,
  0x05, 0xc2, 0xf8, 0xd4, 0xd7, 0x1f, 0x27, 0xf3, 0xd1, 0xdc, 0x2d, 0x0a,
  0x34, 0x3c, 0xd7, 0xdc, 0xfb, 0x2a, 0x0e, 0xed, 0x10, 0x2c, 0x38, 0x33,
  0xca, 0x01, 0x36, 0x0e, 0x12, 0xfa, 0x0d, 0x1c, 0x2a, 0x25, 0xf9, 0xed,
  0x08, 0x02, 0xd9, 0xe8, 0xf0, 0x19, 0x00, 0x05, 0xd2, 0xda, 0xd8, 0x39,
  0x3d, 0x1c, 0xdc, 0xe4, 0xc5, 0xcd, 0xfd, 0xf3, 0xe4, 0xfd, 0x1b, 0x0e,
  0x2a, 0x31, 0x01, 0xcc, 0xf9, 0xf2, 0xc9, 0x29, 0x2b, 0x27, 0x00, 0x37,
  0xc7, 0xe9, 0x2d, 0x0c, 0xe7, 0x28, 0x11, 0x00, 0x14, 0x24, 0xd7, 0x09,
  0x09, 0x0d, 0x2d, 0x0e, 0xcc, 0xce, 0x3f, 0xd5, 0xc5, 0xe1, 0x07, 0x06,
  0x26, 0xf8, 0xef, 0xdd, 0xd6, 0xef, 0xf1, 0x3e, 0xf2, 0xbe, 0xe1, 0x01,
  0x06, 0x33, 0xc3, 0xe0, 0xde, 0x18, 0x08, 0x2c, 0xc3, 0x1a, 0xc4, 0xf7,
  0x1e, 0xcd, 0xe6, 0xd2, 0xd1, 0x0e, 0x0f, 0xfb, 0xf1, 0xc7, 0x19, 0x37,
  0x2e, 0x14, 0xdd, 0xd1, 0xe9, 0xcf, 0x35, 0x0b, 0x3b, 0xdd, 0x0e, 0xd8,
  0xf8, 0xf4, 0xe6, 0x0a, 0x38, 0xdb, 0xfd, 0xfa, 0x05, 0xfe, 0xcd, 0xfb,
  0xf2, 0x32, 0xd2, 0xff, 0xfa, 0xd9, 0xff, 0x1c, 0xe8, 0xe2, 0xc6, 0x3a,
  0x17, 0xd0, 0xea, 0xd7, 0xe1, 0xda, 0xd1, 0xbd, 0x09, 0xf7, 0xd6, 0x18,
  0xf3, 0x27, 0x05, 0xc2, 0x0f, 0xd0, 0xbc, 0xc7, 0xbf, 0xc6, 0x2f, 0x05,
  0x06, 0x30, 0xfd, 0x31, 0x36, 0x3d, 0x09, 0x0e, 0xfe, 0xdb, 0x1c, 0xc6,
  0x19, 0x37, 0xf0, 0xff, 0x0c, 0xc7, 0xef, 0x28, 0x0a, 0xd9, 0x2d, 0xc9,
  0xd0, 0xf2, 0xef, 0x1f, 0x19, 0x28, 0x05, 0x3c, 0xd1, 0xec, 0xe8, 0xee,
  0xe8, 0xe5, 0xed, 0xf2, 0xe1, 0xef, 0xc2, 0xdd, 0xc8, 0xbd, 0x40, 0xff,
  0x1c, 0xcf, 0x3b, 0x4b, 0xef, 0x17, 0x49, 0x04, 0xe5, 0xd8, 0xd9, 0x2f,
  0x1b, 0xf3, 0xd4, 0x07, 0x33, 0x11, 0x2e, 0x3e, 0xcf, 0x02, 0x17, 0x2b,
  0x13, 0x23, 0xe2, 0xd5, 0xcd, 0x2b, 0xdd, 0xea, 0x1b, 0xc4, 0x03, 0x48,
  0x3b, 0xfe, 0xe3, 0x11, 0xf9, 0xf8, 0x02, 0x02, 0x34, 0x27, 0x06, 0x28,
  0xff, 0xed, 0x3f, 0x1e, 0x3b, 0xde, 0x19, 0xda, 0x2f, 0xd4, 0xf1, 0xc7,
  0x05, 0x0f, 0xd0, 0x38, 0xed, 0xea, 0xe7, 0xce, 0x42, 0x29, 0xc5, 0xc5,
  0x04, 0xe0, 0x2e, 0x38, 0xf7, 0x34, 0x3c, 0xce, 0x1d, 0x41, 0x2a, 0xfc,
  0xed, 0xe0, 0x38, 0xfc, 0x0b, 0xe1, 0xe6, 0x2b, 0xf3, 0xd2, 0xd4, 0x10,
  0x01, 0x34, 0x16, 0x20, 0xe5, 0x38, 0xf2, 0xde, 0x1a, 0x2d, 0xd4, 0xd8,
  0xc6, 0x05, 0x08, 0xf4, 0xe1, 0xce, 0xf1, 0xc8, 0x14, 0x2a, 0x0a, 0x20,
  0xe9, 0x21, 0x37, 0x33, 0x43, 0xf1, 0x23, 0x51, 0x11, 0xf3, 0xf5, 0xc9,
  0x39, 0xdc, 0xc5, 0x3e, 0x0f, 0xb8, 0x3c, 0xc2, 0xe3, 0x06, 0x3c, 0x36,
  0x3c, 0x22, 0x14, 0x1d, 0x38, 0x20, 0x38, 0x1a, 0x3f, 0x1e, 0xfa, 0xed,
  0x29, 0x13, 0x49, 0x1b, 0xc6, 0x1d, 0xdf, 0xfd, 0x37, 0x1e, 0x02, 0xcd,
  0xc6, 0x02, 0x10, 0x19, 0x22, 0xbe, 0x21, 0x2c, 0x0f, 0x09, 0x21, 0x03,
  0xbe, 0x35, 0xf2, 0xe6, 0xee, 0xd1, 0xdb, 0x0b, 0xfa, 0xee, 0xd7, 0xd7,
  0xe8, 0xf8, 0x39, 0xff, 0xf0, 0xd3, 0xef, 0x03, 0xfc, 0x1b, 0xee, 0xce,
  0xbf, 0xe9, 0x3c, 0xd9, 0x32, 0x32, 0x00, 0x37, 0xce, 0xce, 0x38, 0x26,
  0x0c, 0x2c, 0x31, 0xe2, 0x08, 0x34, 0x41, 0x1a, 0xfe, 0xc3, 0x0e, 0x26,
  0xf1, 0x9e, 0x10, 0x33, 0x07, 0xec, 0xe5, 0xf6, 0x0f, 0xc8, 0xdb, 0xe0,
  0x1f, 0xd0, 0xe3, 0x1e, 0xd4, 0x13, 0x07, 0xe1, 0x07, 0x1d, 0x3d, 0xfc,
  0xe4, 0x0c, 0xc9, 0xd5, 0xc3, 0x1e, 0xe3, 0xbc, 0x08, 0x2c, 0x11, 0x13,
  0x14, 0x1c, 0x3d, 0x21, 0xd2, 0x1b, 0x1d, 0x3a, 0x3a, 0xfe, 0xd1, 0xe4,
  0x50, 0x3d, 0xf5, 0x53, 0x3f, 0x13, 0x35, 0x32, 0x2f, 0x4a, 0xd6, 0xf1,
  0xc9, 0xde, 0x18, 0x39, 0x17, 0x1f, 0xf4, 0xe7, 0x1d, 0x40, 0x48, 0xd4,
  0x38, 0xc7, 0x37, 0x25, 0xee, 0xd8, 0x11, 0x15, 0x3f, 0x0d, 0x00, 0x35,
  0x02, 0x0c, 0x1b, 0x11, 0x32, 0xe0, 0xe9, 0xfe, 0xc8, 0x23, 0xc9, 0x3d,
  0x16, 0x39, 0x1c, 0x1e, 0xf6, 0xc2, 0xf9, 0x0e, 0x2b, 0x1e, 0xfd, 0x09,
  0x43, 0xf6, 0x25, 0x32, 0xca, 0xcb, 0xfe, 0x3b, 0xed, 0x43, 0xd9, 0xf9,
  0xda, 0xe1, 0x47, 0x24, 0x17, 0xd8, 0xc9, 0x31, 0x2b, 0xee, 0x16, 0xee,
  0x1f, 0xfa, 0x12, 0xe8, 0xef, 0xe1, 0xd8, 0xfa, 0xdb, 0xea, 0xf0, 0x20,
  0xcd, 0x01, 0x1f, 0x11, 0xed, 0xc5, 0x01, 0xc9, 0x33, 0x35, 0x21, 0x0c,
  0x23, 0x35, 0xd0, 0xe6, 0x34, 0x25, 0xf9, 0xd5, 0xd0, 0x03, 0xdf, 0x1a,
  0x28, 0x02, 0xfb, 0x0c, 0x1a, 0xd0, 0x2f, 0xf7, 0xcd, 0xe9, 0x28, 0x35,
  0x1a, 0x03, 0x12, 0xd9, 0x09, 0xf0, 0xc6, 0x24, 0xf9, 0x0b, 0xbf, 0xd4,
  0xca, 0xff, 0xff, 0xff, 0x04, 0x00, 0x00, 0x00, 0x14, 0x00, 0x00, 0x00,
  0xb0, 0x34, 0x7f, 0xf2, 0xaf, 0xdd, 0x5c, 0x58, 0x2e, 0x2b, 0x8f, 0xff,
  0x3a, 0x10, 0x36, 0xb5, 0x9b, 0xc8, 0x28, 0x76, 0xea, 0xff, 0xff, 0xff,
  0x04, 0x00, 0x00, 0x00, 0x08, 0x00, 0x00, 0x00, 0x00, 0x00, 0x00, 0x00,
  0x00, 0x00, 0x00, 0x00, 0x00, 0x00, 0x06, 0x00, 0x08, 0x00, 0x04, 0x00,
  0x06, 0x00, 0x00, 0x00, 0x04, 0x00, 0x00, 0x00, 0x08, 0x00, 0x00, 0x00,
  0xff, 0xff, 0xff, 0xff, 0xa4, 0x01, 0x00, 0x00, 0x74, 0xf7, 0xff, 0xff,
  0x78, 0xf7, 0xff, 0xff, 0x0f, 0x00, 0x00, 0x00, 0x4d, 0x4c, 0x49, 0x52,
  0x20, 0x43, 0x6f, 0x6e, 0x76, 0x65, 0x72, 0x74, 0x65, 0x64, 0x2e, 0x00,
  0x01, 0x00, 0x00, 0x00, 0x14, 0x00, 0x00, 0x00, 0x00, 0x00, 0x0e, 0x00,
  0x18, 0x00, 0x14, 0x00, 0x10, 0x00, 0x0c, 0x00, 0x08, 0x00, 0x04, 0x00,
  0x0e, 0x00, 0x00, 0x00, 0x14, 0x00, 0x00, 0x00, 0x1c, 0x00, 0x00, 0x00,
  0x7c, 0x01, 0x00, 0x00, 0x80, 0x01, 0x00, 0x00, 0x84, 0x01, 0x00, 0x00,
  0x04, 0x00, 0x00, 0x00, 0x6d, 0x61, 0x69, 0x6e, 0x00, 0x00, 0x00, 0x00,
  0x06, 0x00, 0x00, 0x00, 0x44, 0x01, 0x00, 0x00, 0xdc, 0x00, 0x00, 0x00,
  0xa4, 0x00, 0x00, 0x00, 0x60, 0x00, 0x00, 0x00, 0x28, 0x00, 0x00, 0x00,
  0x04, 0x00, 0x00, 0x00, 0x76, 0xff, 0xff, 0xff, 0x0c, 0x00, 0x00, 0x00,
  0x10, 0x00, 0x00, 0x00, 0x04, 0x00, 0x00, 0x00, 0x01, 0x00, 0x00, 0x00,
  0x0c, 0x00, 0x00, 0x00, 0x01, 0x00, 0x00, 0x00, 0x0b, 0x00, 0x00, 0x00,
  0x66, 0xff, 0xff, 0xff, 0x14, 0x00, 0x00, 0x00, 0x00, 0x00, 0x00, 0x08,
  0x10, 0x00, 0x00, 0x00, 0x14, 0x00, 0x00, 0x00, 0x03, 0x00, 0x00, 0x00,
  0x20, 0xf8, 0xff, 0xff, 0x01, 0x00, 0x00, 0x00, 0x0b, 0x00, 0x00, 0x00,
  0x03, 0x00, 0x00, 0x00, 0x0a, 0x00, 0x00, 0x00, 0x03, 0x00, 0x00, 0x00,
  0x02, 0x00, 0x00, 0x00, 0x9a, 0xff, 0xff, 0xff, 0x14, 0x00, 0x00, 0x00,
  0x00, 0x00, 0x00, 0x08, 0x10, 0x00, 0x00, 0x00, 0x14, 0x00, 0x00, 0x00,
  0x03, 0x00, 0x00, 0x00, 0x54, 0xf8, 0xff, 0xff, 0x01, 0x00, 0x00, 0x00,
  0x0a, 0x00, 0x00, 0x00, 0x03, 0x00, 0x00, 0x00, 0x09, 0x00, 0x00, 0x00,
  0x04, 0x00, 0x00, 0x00, 0xff, 0xff, 0xff, 0xff, 0x00, 0x00, 0x0a, 0x00,
  0x10, 0x00, 0x0c, 0x00, 0x08, 0x00, 0x04, 0x00, 0x0a, 0x00, 0x00, 0x00,
  0x0c, 0x00, 0x00, 0x00, 0x10, 0x00, 0x00, 0x00, 0x02, 0x00, 0x00, 0x00,
  0x01, 0x00, 0x00, 0x00, 0x09, 0x00, 0x00, 0x00, 0x02, 0x00, 0x00, 0x00,
  0x08, 0x00, 0x00, 0x00, 0x01, 0x00, 0x00, 0x00, 0x00, 0x00, 0x0e, 0x00,
  0x1a, 0x00, 0x14, 0x00, 0x10, 0x00, 0x0c, 0x00, 0x0b, 0x00, 0x04, 0x00,
  0x0e, 0x00, 0x00, 0x00, 0x24, 0x00, 0x00, 0x00, 0x00, 0x00, 0x00, 0x02,
  0x34, 0x00, 0x00, 0x00, 0x38, 0x00, 0x00, 0x00, 0x01, 0x00, 0x00, 0x00,
  0x00, 0x00, 0x0e, 0x00, 0x18, 0x00, 0x17, 0x00, 0x10, 0x00, 0x0c, 0x00,
  0x08, 0x00, 0x07, 0x00, 0x0e, 0x00, 0x00, 0x00, 0x00, 0x00, 0x00, 0x01,
  0x01, 0x00, 0x00, 0x00, 0x01, 0x00, 0x00, 0x00, 0x01, 0x00, 0x00, 0x00,
  0x00, 0x00, 0x00, 0x01, 0x01, 0x00, 0x00, 0x00, 0x08, 0x00, 0x00, 0x00,
  0x03, 0x00, 0x00, 0x00, 0x07, 0x00, 0x00, 0x00, 0x06, 0x00, 0x00, 0x00,
  0x05, 0x00, 0x00, 0x00, 0x00, 0x00, 0x0a, 0x00, 0x0c, 0x00, 0x00, 0x00,
  0x08, 0x00, 0x04, 0x00, 0x0a, 0x00, 0x00, 0x00, 0x08, 0x00, 0x00, 0x00,
  0x0c, 0x00, 0x00, 0x00, 0x01, 0x00, 0x00, 0x00, 0x07, 0x00, 0x00, 0x00,
  0x01, 0x00, 0x00, 0x00, 0x00, 0x00, 0x00, 0x00, 0x01, 0x00, 0x00, 0x00,
  0x0c, 0x00, 0x00, 0x00, 0x01, 0x00, 0x00, 0x00, 0x00, 0x00, 0x00, 0x00,
  0x0d, 0x00, 0x00, 0x00, 0x8c, 0x06, 0x00, 0x00, 0x28, 0x06, 0x00, 0x00,
  0x80, 0x05, 0x00, 0x00, 0x10, 0x05, 0x00, 0x00, 0xa4, 0x04, 0x00, 0x00,
  0x20, 0x04, 0x00, 0x00, 0x84, 0x03, 0x00, 0x00, 0x00, 0x03, 0x00, 0x00,
  0xd4, 0x01, 0x00, 0x00, 0x58, 0x01, 0x00, 0x00, 0xdc, 0x00, 0x00, 0x00,
  0x60, 0x00, 0x00, 0x00, 0x04, 0x00, 0x00, 0x00, 0xbe, 0xf9, 0xff, 0xff,
  0x00, 0x00, 0x00, 0x01, 0x14, 0x00, 0x00, 0x00, 0x1c, 0x00, 0x00, 0x00,
  0x1c, 0x00, 0x00, 0x00, 0x0d, 0x00, 0x00, 0x00, 0x34, 0x00, 0x00, 0x00,
  0x02, 0x00, 0x00, 0x00, 0xff, 0xff, 0xff, 0xff, 0x02, 0x00, 0x00, 0x00,
  0xa0, 0xf9, 0xff, 0xff, 0x19, 0x00, 0x00, 0x00, 0x53, 0x74, 0x61, 0x74,
  0x65, 0x66, 0x75, 0x6c, 0x50, 0x61, 0x72, 0x74, 0x69, 0x74, 0x69, 0x6f,
  0x6e, 0x65, 0x64, 0x43, 0x61, 0x6c, 0x6c, 0x3a, 0x30, 0x00, 0x00, 0x00,
  0x02, 0x00, 0x00, 0x00, 0x01, 0x00, 0x00, 0x00, 0x02, 0x00, 0x00, 0x00,
  0x86, 0xfd, 0xff, 0xff, 0x00, 0x00, 0x00, 0x01, 0x18, 0x00, 0x00, 0x00,
  0x20, 0x00, 0x00, 0x00, 0x3c, 0x00, 0x00, 0x00, 0x0c, 0x00, 0x00, 0x00,
  0x00, 0x00, 0x00, 0x09, 0x50, 0x00, 0x00, 0x00, 0x02, 0x00, 0x00, 0x00,
  0xff, 0xff, 0xff, 0xff, 0x02, 0x00, 0x00, 0x00, 0x14, 0xfb, 0xff, 0xff,
  0x08, 0x00, 0x00, 0x00, 0x10, 0x00, 0x00, 0x00, 0x01, 0x00, 0x00, 0x00,
  0x19, 0x00, 0x00, 0x00, 0x00, 0x00, 0x00, 0x00, 0x01, 0x00, 0x00, 0x00,
  0x08, 0x42, 0x7c, 0x3f, 0x1a, 0x00, 0x00, 0x00, 0x53, 0x74, 0x61, 0x74,
  0x65, 0x66, 0x75, 0x6c, 0x50, 0x61, 0x72, 0x74, 0x69, 0x74, 0x69, 0x6f,
  0x6e, 0x65, 0x64, 0x43, 0x61, 0x6c, 0x6c, 0x3a, 0x30, 0x31, 0x00, 0x00,
  0x02, 0x00, 0x00, 0x00, 0x01, 0x00, 0x00, 0x00, 0x02, 0x00, 0x00, 0x00,
  0xfe, 0xfd, 0xff, 0xff, 0x00, 0x00, 0x00, 0x01, 0x18, 0x00, 0x00, 0x00,
  0x20, 0x00, 0x00, 0x00, 0x3c, 0x00, 0x00, 0x00, 0x0b, 0x00, 0x00, 0x00,
  0x00, 0x00, 0x00, 0x09, 0x50, 0x00, 0x00, 0x00, 0x02, 0x00, 0x00, 0x00,
  0xff, 0xff, 0xff, 0xff, 0x0a, 0x00, 0x00, 0x00, 0x8c, 0xfb, 0xff, 0xff,
  0x08, 0x00, 0x00, 0x00, 0x10, 0x00, 0x00, 0x00, 0x01, 0x00, 0x00, 0x00,
  0x0e, 0x00, 0x00, 0x00, 0x00, 0x00, 0x00, 0x00, 0x01, 0x00, 0x00, 0x00,
  0x0c, 0x42, 0x38, 0x3f, 0x18, 0x00, 0x00, 0x00, 0x73, 0x65, 0x71, 0x75,
  0x65, 0x6e, 0x74, 0x69, 0x61, 0x6c, 0x2f, 0x64, 0x65, 0x6e, 0x73, 0x65,
  0x2f, 0x4d, 0x61, 0x74, 0x4d, 0x75, 0x6c, 0x32, 0x00, 0x00, 0x00, 0x00,
  0x02, 0x00, 0x00, 0x00, 0x01, 0x00, 0x00, 0x00, 0x0a, 0x00, 0x00, 0x00,
  0x76, 0xfe, 0xff, 0xff, 0x00, 0x00, 0x00, 0x01, 0x18, 0x00, 0x00, 0x00,
  0x20, 0x00, 0x00, 0x00, 0x3c, 0x00, 0x00, 0x00, 0x0a, 0x00, 0x00, 0x00,
  0x00, 0x00, 0x00, 0x09, 0x50, 0x00, 0x00, 0x00, 0x02, 0x00, 0x00, 0x00,
  0xff, 0xff, 0xff, 0xff, 0xa4, 0x01, 0x00, 0x00, 0x04, 0xfc, 0xff, 0xff,
  0x08, 0x00, 0x00, 0x00, 0x10, 0x00, 0x00, 0x00, 0x01, 0x00, 0x00, 0x00,
  0x80, 0xff, 0xff, 0xff, 0xff, 0xff, 0xff, 0xff, 0x01, 0x00, 0x00, 0x00,
  0x9c, 0x23, 0xda, 0x3f, 0x1a, 0x00, 0x00, 0x00, 0x73, 0x65, 0x71, 0x75,
  0x65, 0x6e, 0x74, 0x69, 0x61, 0x6c, 0x2f, 0x66, 0x6c, 0x61, 0x74, 0x74,
  0x65, 0x6e, 0x2f, 0x52, 0x65, 0x73, 0x68, 0x61, 0x70, 0x65, 0x00, 0x00,
  0x02, 0x00, 0x00, 0x00, 0x01, 0x00, 0x00, 0x00, 0xa4, 0x01, 0x00, 0x00,
  0xee, 0xfe, 0xff, 0xff, 0x00, 0x00, 0x00, 0x01, 0x18, 0x00, 0x00, 0x00,
  0x28, 0x00, 0x00, 0x00, 0x48, 0x00, 0x00, 0x00, 0x09, 0x00, 0x00, 0x00,
  0x00, 0x00, 0x00, 0x09, 0xe0, 0x00, 0x00, 0x00, 0x04, 0x00, 0x00, 0x00,
  0xff, 0xff, 0xff, 0xff, 0x0e, 0x00, 0x00, 0x00, 0x1e, 0x00, 0x00, 0x00,
  0x01, 0x00, 0x00, 0x00, 0x84, 0xfc, 0xff, 0xff, 0x08, 0x00, 0x00, 0x00,
  0x14, 0x00, 0x00, 0x00, 0x01, 0x00, 0x00, 0x00, 0x80, 0xff, 0xff, 0xff,
  0xff, 0xff, 0xff, 0xff, 0x00, 0x00, 0x00, 0x00, 0x01, 0x00, 0x00, 0x00,
  0x9c, 0x23, 0xda, 0x3f, 0x9d, 0x00, 0x00, 0x00, 0x73, 0x65, 0x71, 0x75,
  0x65, 0x6e, 0x74, 0x69, 0x61, 0x6c, 0x2f, 0x64, 0x65, 0x70, 0x74, 0x68,
  0x77, 0x69, 0x73, 0x65, 0x5f, 0x63, 0x6f, 0x6e, 0x76, 0x32, 0x64, 0x2f,
  0x52, 0x65, 0x6c, 0x75, 0x3b, 0x73, 0x65, 0x71, 0x75, 0x65, 0x6e, 0x74,
  0x69, 0x61, 0x6c, 0x2f, 0x64, 0x65, 0x70, 0x74, 0x68, 0x77, 0x69, 0x73,
  0x65, 0x5f, 0x63, 0x6f, 0x6e, 0x76, 0x32, 0x64, 0x2f, 0x42, 0x69, 0x61,
  0x73, 0x41, 0x64, 0x64, 0x3b, 0x73, 0x65, 0x71, 0x75, 0x65, 0x6e, 0x74,
  0x69, 0x61, 0x6c, 0x2f, 0x64, 0x65, 0x70, 0x74, 0x68, 0x77, 0x69, 0x73,
  0x65, 0x5f, 0x63, 0x6f, 0x6e, 0x76, 0x32, 0x64, 0x2f, 0x64, 0x65, 0x70,
  0x74, 0x68, 0x77, 0x69, 0x73, 0x65, 0x3b, 0x73, 0x65, 0x71, 0x75, 0x65,
  0x6e, 0x74, 0x69, 0x61, 0x6c, 0x2f, 0x64, 0x65, 0x70, 0x74, 0x68, 0x77,
  0x69, 0x73, 0x65, 0x5f, 0x63, 0x6f, 0x6e, 0x76, 0x32, 0x64, 0x2f, 0x42,
  0x69, 0x61, 0x73, 0x41, 0x64, 0x64, 0x2f, 0x52, 0x65, 0x61, 0x64, 0x56,
  0x61, 0x72, 0x69, 0x61, 0x62, 0x6c, 0x65, 0x4f, 0x70, 0x00, 0x00, 0x00,
  0x04, 0x00, 0x00, 0x00, 0x01, 0x00, 0x00, 0x00, 0x0e, 0x00, 0x00, 0x00,
  0x1e, 0x00, 0x00, 0x00, 0x01, 0x00, 0x00, 0x00, 0x00, 0x00, 0x16, 0x00,
  0x20, 0x00, 0x1c, 0x00, 0x1b, 0x00, 0x14, 0x00, 0x10, 0x00, 0x0c, 0x00,
  0x00, 0x00, 0x00, 0x00, 0x08, 0x00, 0x07, 0x00, 0x16, 0x00, 0x00, 0x00,
  0x00, 0x00, 0x00, 0x01, 0x18, 0x00, 0x00, 0x00, 0x28, 0x00, 0x00, 0x00,
  0x48, 0x00, 0x00, 0x00, 0x08, 0x00, 0x00, 0x00, 0x00, 0x00, 0x00, 0x09,
  0x50, 0x00, 0x00, 0x00, 0x04, 0x00, 0x00, 0x00, 0xff, 0xff, 0xff, 0xff,
  0x10, 0x00, 0x00, 0x00, 0x20, 0x00, 0x00, 0x00, 0x01, 0x00, 0x00, 0x00,
  0xac, 0xfd, 0xff, 0xff, 0x08, 0x00, 0x00, 0x00, 0x14, 0x00, 0x00, 0x00,
  0x01, 0x00, 0x00, 0x00, 0x80, 0xff, 0xff, 0xff, 0xff, 0xff, 0xff, 0xff,
  0x00, 0x00, 0x00, 0x00, 0x01, 0x00, 0x00, 0x00, 0x11, 0xee, 0xb6, 0x40,
  0x0c, 0x00, 0x00, 0x00, 0x74, 0x66, 0x6c, 0x2e, 0x71, 0x75, 0x61, 0x6e,
  0x74, 0x69, 0x7a, 0x65, 0x00, 0x00, 0x00, 0x00, 0x04, 0x00, 0x00, 0x00,
  0x01, 0x00, 0x00, 0x00, 0x10, 0x00, 0x00, 0x00, 0x20, 0x00, 0x00, 0x00,
  0x01, 0x00, 0x00, 0x00, 0x86, 0xfd, 0xff, 0xff, 0x00, 0x00, 0x00, 0x01,
  0x28, 0x00, 0x00, 0x00, 0x4c, 0x00, 0x00, 0x00, 0x07, 0x00, 0x00, 0x00,
  0x00, 0x00, 0x00, 0x09, 0x6c, 0x00, 0x00, 0x00, 0x00, 0x00, 0x12, 0x00,
  0x10, 0x00, 0x00, 0x00, 0x00, 0x00, 0x0c, 0x00, 0x08, 0x00, 0x00, 0x00,
  0x00, 0x00, 0x04, 0x00, 0x12, 0x00, 0x00, 0x00, 0x03, 0x00, 0x00, 0x00,
  0x08, 0x00, 0x00, 0x00, 0x14, 0x00, 0x00, 0x00, 0x01, 0x00, 0x00, 0x00,
  0x00, 0x00, 0x00, 0x00, 0x00, 0x00, 0x00, 0x00, 0x00, 0x00, 0x00, 0x00,
  0x01, 0x00, 0x00, 0x00, 0x27, 0xb4, 0x8d, 0x3b, 0x25, 0x00, 0x00, 0x00,
  0x73, 0x65, 0x71, 0x75, 0x65, 0x6e, 0x74, 0x69, 0x61, 0x6c, 0x2f, 0x64,
  0x65, 0x70, 0x74, 0x68, 0x77, 0x69, 0x73, 0x65, 0x5f, 0x63, 0x6f, 0x6e,
  0x76, 0x32, 0x64, 0x2f, 0x64, 0x65, 0x70, 0x74, 0x68, 0x77, 0x69, 0x73,
  0x65, 0x00, 0x00, 0x00, 0x04, 0x00, 0x00, 0x00, 0x01, 0x00, 0x00, 0x00,
  0x03, 0x00, 0x00, 0x00, 0x03, 0x00, 0x00, 0x00, 0x01, 0x00, 0x00, 0x00,
  0x1e, 0xfe, 0xff, 0xff, 0x00, 0x00, 0x00, 0x01, 0x14, 0x00, 0x00, 0x00,
  0x34, 0x00, 0x00, 0x00, 0x06, 0x00, 0x00, 0x00, 0x00, 0x00, 0x00, 0x02,
  0x60, 0x00, 0x00, 0x00, 0xac, 0xfe, 0xff, 0xff, 0x08, 0x00, 0x00, 0x00,
  0x14, 0x00, 0x00, 0x00, 0x01, 0x00, 0x00, 0x00, 0x00, 0x00, 0x00, 0x00,
  0x00, 0x00, 0x00, 0x00, 0x00, 0x00, 0x00, 0x00, 0x01, 0x00, 0x00, 0x00,
  0xb5, 0x83, 0xca, 0x3c, 0x32, 0x00, 0x00, 0x00, 0x73, 0x65, 0x71, 0x75,
  0x65, 0x6e, 0x74, 0x69, 0x61, 0x6c, 0x2f, 0x64, 0x65, 0x70, 0x74, 0x68,
  0x77, 0x69, 0x73, 0x65, 0x5f, 0x63, 0x6f, 0x6e, 0x76, 0x32, 0x64, 0x2f,
  0x42, 0x69, 0x61, 0x73, 0x41, 0x64, 0x64, 0x2f, 0x52, 0x65, 0x61, 0x64,
  0x56, 0x61, 0x72, 0x69, 0x61, 0x62, 0x6c, 0x65, 0x4f, 0x70, 0x00, 0x00,
  0x01, 0x00, 0x00, 0x00, 0x01, 0x00, 0x00, 0x00, 0x9e, 0xfe, 0xff, 0xff,
  0x00, 0x00, 0x00, 0x01, 0x14, 0x00, 0x00, 0x00, 0x30, 0x00, 0x00, 0x00,
  0x05, 0x00, 0x00, 0x00, 0x00, 0x00, 0x00, 0x09, 0x44, 0x00, 0x00, 0x00,
  0x2c, 0xff, 0xff, 0xff, 0x08, 0x00, 0x00, 0x00, 0x10, 0x00, 0x00, 0x00,
  0x01, 0x00, 0x00, 0x00, 0x00, 0x00, 0x00, 0x00, 0x00, 0x00, 0x00, 0x00,
  0x01, 0x00, 0x00, 0x00, 0x08, 0xbd, 0xec, 0x3a, 0x18, 0x00, 0x00, 0x00,
  0x73, 0x65, 0x71, 0x75, 0x65, 0x6e, 0x74, 0x69, 0x61, 0x6c, 0x2f, 0x64,
  0x65, 0x6e, 0x73, 0x65, 0x2f, 0x4d, 0x61, 0x74, 0x4d, 0x75, 0x6c, 0x31,
  0x00, 0x00, 0x00, 0x00, 0x02, 0x00, 0x00, 0x00, 0x0a, 0x00, 0x00, 0x00,
  0xa4, 0x01, 0x00, 0x00, 0x06, 0xff, 0xff, 0xff, 0x00, 0x00, 0x00, 0x01,
  0x14, 0x00, 0x00, 0x00, 0x34, 0x00, 0x00, 0x00, 0x04, 0x00, 0x00, 0x00,
  0x00, 0x00, 0x00, 0x09, 0x48, 0x00, 0x00, 0x00, 0x94, 0xff, 0xff, 0xff,
  0x08, 0x00, 0x00, 0x00, 0x14, 0x00, 0x00, 0x00, 0x01, 0x00, 0x00, 0x00,
  0x00, 0x00, 0x00, 0x00, 0x00, 0x00, 0x00, 0x00, 0x00, 0x00, 0x00, 0x00,
  0x01, 0x00, 0x00, 0x00, 0x32, 0x48, 0xb6, 0x3b, 0x19, 0x00, 0x00, 0x00,
  0x73, 0x65, 0x71, 0x75, 0x65, 0x6e, 0x74, 0x69, 0x61, 0x6c, 0x2f, 0x64,
  0x65, 0x6e, 0x73, 0x65, 0x5f, 0x31, 0x2f, 0x4d, 0x61, 0x74, 0x4d, 0x75,
  0x6c, 0x00, 0x00, 0x00, 0x02, 0x00, 0x00, 0x00, 0x02, 0x00, 0x00, 0x00,
  0x0a, 0x00, 0x00, 0x00, 0x72, 0xff, 0xff, 0xff, 0x00, 0x00, 0x00, 0x01,
  0x20, 0x00, 0x00, 0x00, 0x3c, 0x00, 0x00, 0x00, 0x03, 0x00, 0x00, 0x00,
  0x00, 0x00, 0x00, 0x02, 0x6c, 0x00, 0x00, 0x00, 0x0c, 0x00, 0x0c, 0x00,
  0x00, 0x00, 0x00, 0x00, 0x08, 0x00, 0x04, 0x00, 0x0c, 0x00, 0x00, 0x00,
  0x08, 0x00, 0x00, 0x00, 0x10, 0x00, 0x00, 0x00, 0x01, 0x00, 0x00, 0x00,
  0x00, 0x00, 0x00, 0x00, 0x00, 0x00, 0x00, 0x00, 0x01, 0x00, 0x00, 0x00,
  0xeb, 0x32, 0x83, 0x3b, 0x34, 0x00, 0x00, 0x00, 0x73, 0x65, 0x71, 0x75,
  0x65, 0x6e, 0x74, 0x69, 0x61, 0x6c, 0x2f, 0x64, 0x65, 0x6e, 0x73, 0x65,
  0x5f, 0x31, 0x2f, 0x4d, 0x61, 0x74, 0x4d, 0x75, 0x6c, 0x3b, 0x73, 0x65,
  0x71, 0x75, 0x65, 0x6e, 0x74, 0x69, 0x61, 0x6c, 0x2f, 0x64, 0x65, 0x6e,
  0x73, 0x65, 0x5f, 0x31, 0x2f, 0x42, 0x69, 0x61, 0x73, 0x41, 0x64, 0x64,
  0x00, 0x00, 0x00, 0x00, 0x01, 0x00, 0x00, 0x00, 0x02, 0x00, 0x00, 0x00,
  0x00, 0x00, 0x16, 0x00, 0x1c, 0x00, 0x18, 0x00, 0x17, 0x00, 0x10, 0x00,
  0x0c, 0x00, 0x08, 0x00, 0x00, 0x00, 0x00, 0x00, 0x00, 0x00, 0x07, 0x00,
  0x16, 0x00, 0x00, 0x00, 0x00, 0x00, 0x00, 0x01, 0x14, 0x00, 0x00, 0x00,
  0x14, 0x00, 0x00, 0x00, 0x02, 0x00, 0x00, 0x00, 0x00, 0x00, 0x00, 0x02,
  0x28, 0x00, 0x00, 0x00, 0x8c, 0xff, 0xff, 0xff, 0x18, 0x00, 0x00, 0x00,
  0x73, 0x65, 0x71, 0x75, 0x65, 0x6e, 0x74, 0x69, 0x61, 0x6c, 0x2f, 0x66,
  0x6c, 0x61, 0x74, 0x74, 0x65, 0x6e, 0x2f, 0x43, 0x6f, 0x6e, 0x73, 0x74,
  0x00, 0x00, 0x00, 0x00, 0x01, 0x00, 0x00, 0x00, 0x02, 0x00, 0x00, 0x00,
  0x00, 0x00, 0x16, 0x00, 0x1c, 0x00, 0x18, 0x00, 0x00, 0x00, 0x14, 0x00,
  0x10, 0x00, 0x0c, 0x00, 0x00, 0x00, 0x00, 0x00, 0x08, 0x00, 0x07, 0x00,
  0x16, 0x00, 0x00, 0x00, 0x00, 0x00, 0x00, 0x01, 0x14, 0x00, 0x00, 0x00,
  0x28, 0x00, 0x00, 0x00, 0x28, 0x00, 0x00, 0x00, 0x01, 0x00, 0x00, 0x00,
  0x40, 0x00, 0x00, 0x00, 0x04, 0x00, 0x00, 0x00, 0xff, 0xff, 0xff, 0xff,
  0x10, 0x00, 0x00, 0x00, 0x20, 0x00, 0x00, 0x00, 0x01, 0x00, 0x00, 0x00,
  0x04, 0x00, 0x04, 0x00, 0x04, 0x00, 0x00, 0x00, 0x19, 0x00, 0x00, 0x00,
  0x73, 0x65, 0x72, 0x76, 0x69, 0x6e, 0x67, 0x5f, 0x64, 0x65, 0x66, 0x61,
  0x75, 0x6c, 0x74, 0x5f, 0x69, 0x6e, 0x70, 0x75, 0x74, 0x5f, 0x31, 0x3a,
  0x30, 0x00, 0x00, 0x00, 0x04, 0x00, 0x00, 0x00, 0x01, 0x00, 0x00, 0x00,
  0x10, 0x00, 0x00, 0x00, 0x20, 0x00, 0x00, 0x00, 0x01, 0x00, 0x00, 0x00,
  0x05, 0x00, 0x00, 0x00, 0x68, 0x00, 0x00, 0x00, 0x48, 0x00, 0x00, 0x00,
  0x2c, 0x00, 0x00, 0x00, 0x18, 0x00, 0x00, 0x00, 0x04, 0x00, 0x00, 0x00,
  0xd4, 0xff, 0xff, 0xff, 0x06, 0x00, 0x00, 0x00, 0x02, 0x00, 0x00, 0x00,
  0x00, 0x00, 0x00, 0x06, 0xe4, 0xff, 0xff, 0xff, 0x09, 0x00, 0x00, 0x00,
  0x04, 0x00, 0x00, 0x00, 0x00, 0x00, 0x00, 0x09, 0xd8, 0xff, 0xff, 0xff,
  0x16, 0x00, 0x00, 0x00, 0x00, 0x00, 0x00, 0x16, 0x0c, 0x00, 0x10, 0x00,
  0x0f, 0x00, 0x00, 0x00, 0x08, 0x00, 0x04, 0x00, 0x0c, 0x00, 0x00, 0x00,
  0x04, 0x00, 0x00, 0x00, 0x03, 0x00, 0x00, 0x00, 0x00, 0x00, 0x00, 0x04,
  0x0c, 0x00, 0x0c, 0x00, 0x0b, 0x00, 0x00, 0x00, 0x00, 0x00, 0x04, 0x00,
  0x0c, 0x00, 0x00, 0x00, 0x72, 0x00, 0x00, 0x00, 0x00, 0x00, 0x00, 0x72
};
unsigned int q_model_tflite_len = 7176;

#endif